{
  "version": "1.0",
  "truncation": {
    "direction": "Right",
    "max_length": 100,
    "strategy": "LongestFirst",
    "stride": 0
  },
  "padding": null,
  "added_tokens": [
    {
      "id": 0,
      "content": "[unk]",
      "single_word": false,
      "lstrip": false,
      "rstrip": false,
      "normalized": false,
      "special": true
    },
    {
      "id": 1,
      "content": "[pad]",
      "single_word": false,
      "lstrip": false,
      "rstrip": false,
      "normalized": false,
      "special": true
    },
    {
      "id": 2,
      "content": "[sos]",
      "single_word": false,
      "lstrip": false,
      "rstrip": false,
      "normalized": false,
      "special": true
    },
    {
      "id": 3,
      "content": "[eos]",
      "single_word": false,
      "lstrip": false,
      "rstrip": false,
      "normalized": false,
      "special": true
    }
  ],
  "normalizer": null,
  "pre_tokenizer": {
    "type": "Whitespace"
  },
  "post_processor": null,
  "decoder": null,
  "model": {
    "type": "BPE",
    "dropout": null,
    "unk_token": "[unk]",
    "continuing_subword_prefix": null,
    "end_of_word_suffix": null,
    "fuse_unk": false,
    "byte_fallback": false,
    "ignore_merges": false,
    "vocab": {
      "[unk]": 0,
      "[pad]": 1,
      "[sos]": 2,
      "[eos]": 3,
      "!": 4,
      "\"": 5,
      "#": 6,
      "$": 7,
      "%": 8,
      "&": 9,
      "'": 10,
      "(": 11,
      ")": 12,
      "*": 13,
      "+": 14,
      ",": 15,
      "-": 16,
      ".": 17,
      "/": 18,
      "0": 19,
      "1": 20,
      "2": 21,
      "3": 22,
      "4": 23,
      "5": 24,
      "6": 25,
      "7": 26,
      "8": 27,
      "9": 28,
      ":": 29,
      ";": 30,
      "<": 31,
      "=": 32,
      ">": 33,
      "?": 34,
      "@": 35,
      "A": 36,
      "B": 37,
      "C": 38,
      "D": 39,
      "E": 40,
      "F": 41,
      "G": 42,
      "H": 43,
      "I": 44,
      "J": 45,
      "K": 46,
      "L": 47,
      "M": 48,
      "N": 49,
      "O": 50,
      "P": 51,
      "Q": 52,
      "R": 53,
      "S": 54,
      "T": 55,
      "U": 56,
      "V": 57,
      "W": 58,
      "X": 59,
      "Y": 60,
      "Z": 61,
      "[": 62,
      "\\": 63,
      "]": 64,
      "^": 65,
      "_": 66,
      "`": 67,
      "a": 68,
      "b": 69,
      "c": 70,
      "d": 71,
      "e": 72,
      "f": 73,
      "g": 74,
      "h": 75,
      "i": 76,
      "j": 77,
      "k": 78,
      "l": 79,
      "m": 80,
      "n": 81,
      "o": 82,
      "p": 83,
      "q": 84,
      "r": 85,
      "s": 86,
      "t": 87,
      "u": 88,
      "v": 89,
      "w": 90,
      "x": 91,
      "y": 92,
      "z": 93,
      "{": 94,
      "|": 95,
      "}": 96,
      "~": 97,
      "": 98,
      "": 99,
      "": 100,
      "": 101,
      "": 102,
      "": 103,
      "": 104,
      "": 105,
      "": 106,
      "": 107,
      "": 108,
      "": 109,
      "": 110,
      "": 111,
      "": 112,
      "": 113,
      "": 114,
      "": 115,
      "": 116,
      "": 117,
      "": 118,
      "": 119,
      "": 120,
      "": 121,
      "": 122,
      "": 123,
      "": 124,
      "": 125,
      "": 126,
      "¡": 127,
      "¢": 128,
      "£": 129,
      "¤": 130,
      "¥": 131,
      "¦": 132,
      "§": 133,
      "¨": 134,
      "©": 135,
      "ª": 136,
      "«": 137,
      "¬": 138,
      "­": 139,
      "®": 140,
      "¯": 141,
      "°": 142,
      "±": 143,
      "²": 144,
      "³": 145,
      "´": 146,
      "µ": 147,
      "¶": 148,
      "·": 149,
      "¸": 150,
      "¹": 151,
      "º": 152,
      "»": 153,
      "¼": 154,
      "½": 155,
      "¾": 156,
      "¿": 157,
      "À": 158,
      "Á": 159,
      "Â": 160,
      "Ã": 161,
      "Ä": 162,
      "Å": 163,
      "Æ": 164,
      "Ç": 165,
      "È": 166,
      "É": 167,
      "Ê": 168,
      "Ë": 169,
      "Ì": 170,
      "Í": 171,
      "Î": 172,
      "Ï": 173,
      "Ð": 174,
      "Ñ": 175,
      "Ò": 176,
      "Ó": 177,
      "Ô": 178,
      "Õ": 179,
      "Ö": 180,
      "×": 181,
      "Ø": 182,
      "Ù": 183,
      "Ú": 184,
      "Û": 185,
      "Ü": 186,
      "Ý": 187,
      "Þ": 188,
      "ß": 189,
      "à": 190,
      "á": 191,
      "â": 192,
      "ã": 193,
      "ä": 194,
      "å": 195,
      "æ": 196,
      "ç": 197,
      "è": 198,
      "é": 199,
      "ê": 200,
      "ë": 201,
      "ì": 202,
      "í": 203,
      "î": 204,
      "ï": 205,
      "ð": 206,
      "ñ": 207,
      "ò": 208,
      "ó": 209,
      "ô": 210,
      "õ": 211,
      "ö": 212,
      "÷": 213,
      "ø": 214,
      "ù": 215,
      "ú": 216,
      "û": 217,
      "ü": 218,
      "ý": 219,
      "þ": 220,
      "ÿ": 221,
      "Ā": 222,
      "ā": 223,
      "Ă": 224,
      "ă": 225,
      "Ą": 226,
      "ą": 227,
      "Ć": 228,
      "ć": 229,
      "Ĉ": 230,
      "ĉ": 231,
      "Ċ": 232,
      "ċ": 233,
      "Č": 234,
      "č": 235,
      "Ď": 236,
      "ď": 237,
      "Đ": 238,
      "đ": 239,
      "Ē": 240,
      "ē": 241,
      "ĕ": 242,
      "Ė": 243,
      "ė": 244,
      "Ę": 245,
      "ę": 246,
      "Ě": 247,
      "ě": 248,
      "ĝ": 249,
      "Ğ": 250,
      "ğ": 251,
      "Ġ": 252,
      "ġ": 253,
      "Ģ": 254,
      "ģ": 255,
      "ĥ": 256,
      "Ħ": 257,
      "ħ": 258,
      "ĩ": 259,
      "Ī": 260,
      "ī": 261,
      "ĭ": 262,
      "Į": 263,
      "į": 264,
      "İ": 265,
      "ı": 266,
      "Ĳ": 267,
      "ĵ": 268,
      "Ķ": 269,
      "ķ": 270,
      "ĸ": 271,
      "Ĺ": 272,
      "ĺ": 273,
      "Ļ": 274,
      "ļ": 275,
      "Ľ": 276,
      "ľ": 277,
      "Ŀ": 278,
      "Ł": 279,
      "ł": 280,
      "Ń": 281,
      "ń": 282,
      "Ņ": 283,
      "ņ": 284,
      "Ň": 285,
      "ň": 286,
      "ŋ": 287,
      "Ō": 288,
      "ō": 289,
      "ŏ": 290,
      "Ő": 291,
      "ő": 292,
      "Œ": 293,
      "œ": 294,
      "Ŕ": 295,
      "ŕ": 296,
      "Ř": 297,
      "ř": 298,
      "Ś": 299,
      "ś": 300,
      "Ŝ": 301,
      "ŝ": 302,
      "Ş": 303,
      "ş": 304,
      "Š": 305,
      "š": 306,
      "Ţ": 307,
      "ţ": 308,
      "Ť": 309,
      "ť": 310,
      "ũ": 311,
      "Ū": 312,
      "ū": 313,
      "ŭ": 314,
      "Ů": 315,
      "ů": 316,
      "Ű": 317,
      "ű": 318,
      "ų": 319,
      "ŵ": 320,
      "ŷ": 321,
      "Ÿ": 322,
      "Ź": 323,
      "ź": 324,
      "Ż": 325,
      "ż": 326,
      "Ž": 327,
      "ž": 328,
      "ſ": 329,
      "Ɔ": 330,
      "Ƒ": 331,
      "ƒ": 332,
      "Ɠ": 333,
      "Ɩ": 334,
      "Ƙ": 335,
      "ƛ": 336,
      "Ɲ": 337,
      "Ơ": 338,
      "ơ": 339,
      "Ʀ": 340,
      "Ƭ": 341,
      "ư": 342,
      "ǎ": 343,
      "ǐ": 344,
      "ǒ": 345,
      "ǔ": 346,
      "ǘ": 347,
      "ǜ": 348,
      "ǝ": 349,
      "ǟ": 350,
      "ǣ": 351,
      "ǫ": 352,
      "Ǵ": 353,
      "ǵ": 354,
      "Ǻ": 355,
      "ȃ": 356,
      "ș": 357,
      "ț": 358,
      "Ȥ": 359,
      "Ȼ": 360,
      "ɐ": 361,
      "ɑ": 362,
      "ɒ": 363,
      "ɔ": 364,
      "ɕ": 365,
      "ə": 366,
      "ɚ": 367,
      "ɛ": 368,
      "ɜ": 369,
      "ɡ": 370,
      "ɢ": 371,
      "ɣ": 372,
      "ɤ": 373,
      "ɨ": 374,
      "ɪ": 375,
      "ɫ": 376,
      "ɬ": 377,
      "ɯ": 378,
      "ɲ": 379,
      "ɴ": 380,
      "ɵ": 381,
      "ɹ": 382,
      "ɾ": 383,
      "ʀ": 384,
      "ʁ": 385,
      "ʃ": 386,
      "ʊ": 387,
      "ʋ": 388,
      "ʌ": 389,
      "ʎ": 390,
      "ʐ": 391,
      "ʒ": 392,
      "ʔ": 393,
      "ʚ": 394,
      "ʤ": 395,
      "ʦ": 396,
      "ʰ": 397,
      "ʲ": 398,
      "ʺ": 399,
      "ʻ": 400,
      "ʼ": 401,
      "ʾ": 402,
      "ʿ": 403,
      "ˁ": 404,
      "ˆ": 405,
      "ˇ": 406,
      "ˈ": 407,
      "ˌ": 408,
      "ː": 409,
      "ˑ": 410,
      "˘": 411,
      "˙": 412,
      "˚": 413,
      "˛": 414,
      "˜": 415,
      "˝": 416,
      "ˡ": 417,
      "ˤ": 418,
      "̀": 419,
      "́": 420,
      "̂": 421,
      "̃": 422,
      "̄": 423,
      "̆": 424,
      "̇": 425,
      "̈": 426,
      "̍": 427,
      "̡": 428,
      "̣": 429,
      "̤": 430,
      "̧": 431,
      "̯": 432,
      "̱": 433,
      "̶": 434,
      "͘": 435,
      "͡": 436,
      "΄": 437,
      "Ά": 438,
      "Έ": 439,
      "Ί": 440,
      "Ό": 441,
      "Ώ": 442,
      "ΐ": 443,
      "Α": 444,
      "Β": 445,
      "Γ": 446,
      "Δ": 447,
      "Ε": 448,
      "Ζ": 449,
      "Η": 450,
      "Θ": 451,
      "Ι": 452,
      "Κ": 453,
      "Λ": 454,
      "Μ": 455,
      "Ν": 456,
      "Ο": 457,
      "Π": 458,
      "Ρ": 459,
      "Σ": 460,
      "Τ": 461,
      "Υ": 462,
      "Φ": 463,
      "Χ": 464,
      "Ω": 465,
      "ά": 466,
      "έ": 467,
      "ή": 468,
      "ί": 469,
      "α": 470,
      "β": 471,
      "γ": 472,
      "δ": 473,
      "ε": 474,
      "ζ": 475,
      "η": 476,
      "θ": 477,
      "ι": 478,
      "κ": 479,
      "λ": 480,
      "μ": 481,
      "ν": 482,
      "ξ": 483,
      "ο": 484,
      "π": 485,
      "ρ": 486,
      "ς": 487,
      "σ": 488,
      "τ": 489,
      "υ": 490,
      "φ": 491,
      "χ": 492,
      "ψ": 493,
      "ω": 494,
      "ϊ": 495,
      "ϋ": 496,
      "ό": 497,
      "ύ": 498,
      "ώ": 499,
      "Ё": 500,
      "Ђ": 501,
      "Ѓ": 502,
      "Є": 503,
      "Ѕ": 504,
      "І": 505,
      "Ї": 506,
      "Ј": 507,
      "Љ": 508,
      "Њ": 509,
      "Ћ": 510,
      "Ќ": 511,
      "Ў": 512,
      "Џ": 513,
      "А": 514,
      "Б": 515,
      "В": 516,
      "Г": 517,
      "Д": 518,
      "Е": 519,
      "Ж": 520,
      "З": 521,
      "И": 522,
      "Й": 523,
      "К": 524,
      "Л": 525,
      "М": 526,
      "Н": 527,
      "О": 528,
      "П": 529,
      "Р": 530,
      "С": 531,
      "Т": 532,
      "У": 533,
      "Ф": 534,
      "Х": 535,
      "Ц": 536,
      "Ч": 537,
      "Ш": 538,
      "Щ": 539,
      "Ъ": 540,
      "Ы": 541,
      "Ь": 542,
      "Э": 543,
      "Ю": 544,
      "Я": 545,
      "а": 546,
      "б": 547,
      "в": 548,
      "г": 549,
      "д": 550,
      "е": 551,
      "ж": 552,
      "з": 553,
      "и": 554,
      "й": 555,
      "к": 556,
      "л": 557,
      "м": 558,
      "н": 559,
      "о": 560,
      "п": 561,
      "р": 562,
      "с": 563,
      "т": 564,
      "у": 565,
      "ф": 566,
      "х": 567,
      "ц": 568,
      "ч": 569,
      "ш": 570,
      "щ": 571,
      "ъ": 572,
      "ы": 573,
      "ь": 574,
      "э": 575,
      "ю": 576,
      "я": 577,
      "ё": 578,
      "ђ": 579,
      "ѓ": 580,
      "є": 581,
      "ѕ": 582,
      "і": 583,
      "ї": 584,
      "ј": 585,
      "љ": 586,
      "њ": 587,
      "ћ": 588,
      "ќ": 589,
      "ў": 590,
      "џ": 591,
      "Ѳ": 592,
      "ѳ": 593,
      "Ґ": 594,
      "ґ": 595,
      "ғ": 596,
      "ҙ": 597,
      "қ": 598,
      "Ҡ": 599,
      "ҡ": 600,
      "ң": 601,
      "ү": 602,
      "ұ": 603,
      "Ҳ": 604,
      "ҳ": 605,
      "һ": 606,
      "ә": 607,
      "ө": 608,
      "ְ": 609,
      "ֲ": 610,
      "ֳ": 611,
      "ִ": 612,
      "ֵ": 613,
      "ֶ": 614,
      "ַ": 615,
      "ָ": 616,
      "ֹ": 617,
      "ּ": 618,
      "ֿ": 619,
      "ׁ": 620,
      "א": 621,
      "ב": 622,
      "ג": 623,
      "ד": 624,
      "ה": 625,
      "ו": 626,
      "ז": 627,
      "ח": 628,
      "ט": 629,
      "י": 630,
      "כ": 631,
      "ל": 632,
      "ם": 633,
      "מ": 634,
      "ן": 635,
      "נ": 636,
      "ס": 637,
      "ע": 638,
      "פ": 639,
      "ץ": 640,
      "צ": 641,
      "ק": 642,
      "ר": 643,
      "ש": 644,
      "ת": 645,
      "،": 646,
      "ؒ": 647,
      "؛": 648,
      "ء": 649,
      "آ": 650,
      "أ": 651,
      "ؤ": 652,
      "إ": 653,
      "ئ": 654,
      "ا": 655,
      "ب": 656,
      "ة": 657,
      "ت": 658,
      "ث": 659,
      "ج": 660,
      "ح": 661,
      "خ": 662,
      "د": 663,
      "ذ": 664,
      "ر": 665,
      "ز": 666,
      "س": 667,
      "ش": 668,
      "ص": 669,
      "ض": 670,
      "ط": 671,
      "ظ": 672,
      "ع": 673,
      "غ": 674,
      "ـ": 675,
      "ف": 676,
      "ق": 677,
      "ك": 678,
      "ل": 679,
      "م": 680,
      "ن": 681,
      "ه": 682,
      "و": 683,
      "ى": 684,
      "ي": 685,
      "ً": 686,
      "ٌ": 687,
      "ٍ": 688,
      "َ": 689,
      "ُ": 690,
      "ِ": 691,
      "ّ": 692,
      "ْ": 693,
      "ٲ": 694,
      "ٹ": 695,
      "ټ": 696,
      "پ": 697,
      "ځ": 698,
      "چ": 699,
      "ڠ": 700,
      "ڤ": 701,
      "ک": 702,
      "ڬ": 703,
      "ڭ": 704,
      "گ": 705,
      "ھ": 706,
      "ہ": 707,
      "ۂ": 708,
      "ۆ": 709,
      "ۇ": 710,
      "ی": 711,
      "ې": 712,
      "ە": 713,
      "۞": 714,
      "۩": 715,
      "۰": 716,
      "۱": 717,
      "۲": 718,
      "۳": 719,
      "۴": 720,
      "۵": 721,
      "۶": 722,
      "۷": 723,
      "۸": 724,
      "۹": 725,
      "ߖ": 726,
      "ߧ": 727,
      "߮": 728,
      "ं": 729,
      "अ": 730,
      "आ": 731,
      "ई": 732,
      "उ": 733,
      "क": 734,
      "ग": 735,
      "च": 736,
      "छ": 737,
      "ज": 738,
      "ञ": 739,
      "ट": 740,
      "ड": 741,
      "ढ": 742,
      "ण": 743,
      "त": 744,
      "थ": 745,
      "द": 746,
      "ध": 747,
      "न": 748,
      "प": 749,
      "ब": 750,
      "भ": 751,
      "म": 752,
      "य": 753,
      "र": 754,
      "ल": 755,
      "व": 756,
      "श": 757,
      "ष": 758,
      "स": 759,
      "ह": 760,
      "़": 761,
      "ा": 762,
      "ि": 763,
      "ी": 764,
      "ु": 765,
      "ृ": 766,
      "े": 767,
      "ॉ": 768,
      "ो": 769,
      "्": 770,
      "ॐ": 771,
      "ॡ": 772,
      "०": 773,
      "१": 774,
      "५": 775,
      "९": 776,
      "ং": 777,
      "আ": 778,
      "ই": 779,
      "এ": 780,
      "ক": 781,
      "গ": 782,
      "ঙ": 783,
      "চ": 784,
      "ট": 785,
      "ত": 786,
      "ন": 787,
      "প": 788,
      "ব": 789,
      "ম": 790,
      "য": 791,
      "র": 792,
      "ল": 793,
      "শ": 794,
      "হ": 795,
      "়": 796,
      "া": 797,
      "ি": 798,
      "ু": 799,
      "ো": 800,
      "্": 801,
      "ৰ": 802,
      "ਗ": 803,
      "ਚ": 804,
      "ਡ": 805,
      "ਹ": 806,
      "ੀ": 807,
      "੍": 808,
      "ੜ": 809,
      "ੰ": 810,
      "க": 811,
      "ங": 812,
      "ச": 813,
      "ட": 814,
      "த": 815,
      "ன": 816,
      "ப": 817,
      "ம": 818,
      "ய": 819,
      "ர": 820,
      "ல": 821,
      "வ": 822,
      "ஷ": 823,
      "ா": 824,
      "ி": 825,
      "ு": 826,
      "ூ": 827,
      "ெ": 828,
      "ை": 829,
      "ோ": 830,
      "்": 831,
      "ం": 832,
      "ఆ": 833,
      "క": 834,
      "గ": 835,
      "జ": 836,
      "డ": 837,
      "ద": 838,
      "ధ": 839,
      "న": 840,
      "ప": 841,
      "ర": 842,
      "శ": 843,
      "ా": 844,
      "ు": 845,
      "ె": 846,
      "ే": 847,
      "ొ": 848,
      "్": 849,
      "ౕ": 850,
      "ಐ": 851,
      "ಯ": 852,
      "ರ": 853,
      "ವ": 854,
      "ಶ": 855,
      "ಾ": 856,
      "ೆ": 857,
      "ೈ": 858,
      "್": 859,
      "ೖ": 860,
      "೧": 861,
      "೩": 862,
      "೫": 863,
      "೬": 864,
      "೮": 865,
      "೯": 866,
      "അ": 867,
      "ക": 868,
      "ത": 869,
      "ദ": 870,
      "ന": 871,
      "പ": 872,
      "മ": 873,
      "യ": 874,
      "ല": 875,
      "വ": 876,
      "ഷ": 877,
      "ി": 878,
      "ീ": 879,
      "ോ": 880,
      "്": 881,
      "න": 882,
      "ම": 883,
      "ර": 884,
      "ව": 885,
      "හ": 886,
      "ු": 887,
      "ก": 888,
      "ข": 889,
      "ค": 890,
      "ฆ": 891,
      "ง": 892,
      "จ": 893,
      "ฉ": 894,
      "ช": 895,
      "ซ": 896,
      "ญ": 897,
      "ฎ": 898,
      "ฐ": 899,
      "ฑ": 900,
      "ฒ": 901,
      "ณ": 902,
      "ด": 903,
      "ต": 904,
      "ถ": 905,
      "ท": 906,
      "ธ": 907,
      "น": 908,
      "บ": 909,
      "ป": 910,
      "ผ": 911,
      "ฝ": 912,
      "พ": 913,
      "ฟ": 914,
      "ภ": 915,
      "ม": 916,
      "ย": 917,
      "ร": 918,
      "ฤ": 919,
      "ล": 920,
      "ว": 921,
      "ศ": 922,
      "ษ": 923,
      "ส": 924,
      "ห": 925,
      "อ": 926,
      "ฮ": 927,
      "ฯ": 928,
      "ะ": 929,
      "ั": 930,
      "า": 931,
      "ำ": 932,
      "ิ": 933,
      "ี": 934,
      "ึ": 935,
      "ื": 936,
      "ุ": 937,
      "ู": 938,
      "฿": 939,
      "เ": 940,
      "แ": 941,
      "โ": 942,
      "ใ": 943,
      "ไ": 944,
      "ๆ": 945,
      "็": 946,
      "่": 947,
      "้": 948,
      "๊": 949,
      "๋": 950,
      "์": 951,
      "๑": 952,
      "ຂ": 953,
      "ຄ": 954,
      "ງ": 955,
      "ຈ": 956,
      "ດ": 957,
      "ຖ": 958,
      "ນ": 959,
      "ບ": 960,
      "ມ": 961,
      "ລ": 962,
      "ວ": 963,
      "ັ": 964,
      "າ": 965,
      "ຸ": 966,
      "ົ": 967,
      "ຽ": 968,
      "ເ": 969,
      "້": 970,
      "ໜ": 971,
      "་": 972,
      "ཏ": 973,
      "ད": 974,
      "ན": 975,
      "བ": 976,
      "མ": 977,
      "ཚ": 978,
      "འ": 979,
      "ལ": 980,
      "ས": 981,
      "ཱ": 982,
      "ི": 983,
      "ོ": 984,
      "ྔ": 985,
      "ླ": 986,
      "န": 987,
      "ရ": 988,
      "ဝ": 989,
      "သ": 990,
      "ဟ": 991,
      "ေ": 992,
      "္": 993,
      "ა": 994,
      "ბ": 995,
      "გ": 996,
      "დ": 997,
      "ე": 998,
      "ვ": 999,
      "ზ": 1000,
      "თ": 1001,
      "ი": 1002,
      "კ": 1003,
      "ლ": 1004,
      "მ": 1005,
      "ნ": 1006,
      "ო": 1007,
      "პ": 1008,
      "რ": 1009,
      "ს": 1010,
      "ტ": 1011,
      "უ": 1012,
      "ქ": 1013,
      "ღ": 1014,
      "შ": 1015,
      "ც": 1016,
      "ძ": 1017,
      "წ": 1018,
      "ხ": 1019,
      "ჯ": 1020,
      "ህ": 1021,
      "ሊ": 1022,
      "ል": 1023,
      "ሓ": 1024,
      "ሕ": 1025,
      "መ": 1026,
      "ሙ": 1027,
      "ም": 1028,
      "ሥ": 1029,
      "ረ": 1030,
      "ራ": 1031,
      "ር": 1032,
      "ሰ": 1033,
      "ሴ": 1034,
      "ስ": 1035,
      "ሻ": 1036,
      "ሽ": 1037,
      "ቀ": 1038,
      "ቐ": 1039,
      "በ": 1040,
      "ቢ": 1041,
      "ባ": 1042,
      "ተ": 1043,
      "ት": 1044,
      "ቶ": 1045,
      "ነ": 1046,
      "ን": 1047,
      "አ": 1048,
      "ኣ": 1049,
      "ኤ": 1050,
      "እ": 1051,
      "ኦ": 1052,
      "ካ": 1053,
      "ክ": 1054,
      "ዋ": 1055,
      "ው": 1056,
      "ዓ": 1057,
      "ዕ": 1058,
      "የ": 1059,
      "ይ": 1060,
      "ደ": 1061,
      "ዲ": 1062,
      "ድ": 1063,
      "ገ": 1064,
      "ጋ": 1065,
      "ጨ": 1066,
      "ጽ": 1067,
      "ፅ": 1068,
      "ፈ": 1069,
      "ፍ": 1070,
      "፣": 1071,
      "ᐃ": 1072,
      "ᑦ": 1073,
      "ᒃ": 1074,
      "ᓄ": 1075,
      "ḇ": 1076,
      "ḍ": 1077,
      "ḏ": 1078,
      "ḗ": 1079,
      "Ḥ": 1080,
      "ḥ": 1081,
      "Ḫ": 1082,
      "ḫ": 1083,
      "ḳ": 1084,
      "ḷ": 1085,
      "ḿ": 1086,
      "ṃ": 1087,
      "ṅ": 1088,
      "ṇ": 1089,
      "ṉ": 1090,
      "ṛ": 1091,
      "ṣ": 1092,
      "Ṭ": 1093,
      "ṭ": 1094,
      "Ṯ": 1095,
      "ṳ": 1096,
      "ẋ": 1097,
      "ạ": 1098,
      "ả": 1099,
      "ấ": 1100,
      "ầ": 1101,
      "ẩ": 1102,
      "ậ": 1103,
      "ắ": 1104,
      "ằ": 1105,
      "Ẳ": 1106,
      "ẵ": 1107,
      "ặ": 1108,
      "ẻ": 1109,
      "ẽ": 1110,
      "ế": 1111,
      "ề": 1112,
      "ể": 1113,
      "ễ": 1114,
      "ệ": 1115,
      "ỉ": 1116,
      "ị": 1117,
      "Ọ": 1118,
      "ọ": 1119,
      "ỏ": 1120,
      "ố": 1121,
      "ồ": 1122,
      "ổ": 1123,
      "ộ": 1124,
      "ớ": 1125,
      "ờ": 1126,
      "ở": 1127,
      "ỡ": 1128,
      "ợ": 1129,
      "ụ": 1130,
      "ủ": 1131,
      "ứ": 1132,
      "ừ": 1133,
      "ử": 1134,
      "ữ": 1135,
      "ự": 1136,
      "ỳ": 1137,
      "ỹ": 1138,
      "ἀ": 1139,
      "ἄ": 1140,
      "ἅ": 1141,
      "Ἀ": 1142,
      "ἐ": 1143,
      "ἑ": 1144,
      "ἔ": 1145,
      "Ἔ": 1146,
      "ἠ": 1147,
      "ἡ": 1148,
      "ἦ": 1149,
      "Ἡ": 1150,
      "Ἥ": 1151,
      "ἰ": 1152,
      "Ἱ": 1153,
      "ὁ": 1154,
      "ὄ": 1155,
      "Ὑ": 1156,
      "ά": 1157,
      "ὶ": 1158,
      "ὺ": 1159,
      "ῆ": 1160,
      "ῑ": 1161,
      "ῖ": 1162,
      "ῥ": 1163,
      "ῦ": 1164,
      "​": 1165,
      "‌": 1166,
      "‎": 1167,
      "‏": 1168,
      "‐": 1169,
      "‑": 1170,
      "‒": 1171,
      "–": 1172,
      "—": 1173,
      "―": 1174,
      "‖": 1175,
      "‘": 1176,
      "’": 1177,
      "‚": 1178,
      "‛": 1179,
      "“": 1180,
      "”": 1181,
      "„": 1182,
      "‟": 1183,
      "†": 1184,
      "‡": 1185,
      "•": 1186,
      "…": 1187,
      "‬": 1188,
      "‭": 1189,
      "‰": 1190,
      "′": 1191,
      "″": 1192,
      "‶": 1193,
      "‹": 1194,
      "›": 1195,
      "※": 1196,
      "‼": 1197,
      "‽": 1198,
      "⁄": 1199,
      "ⁿ": 1200,
      "₁": 1201,
      "₂": 1202,
      "₠": 1203,
      "₣": 1204,
      "₤": 1205,
      "₩": 1206,
      "₪": 1207,
      "€": 1208,
      "₴": 1209,
      "₵": 1210,
      "⃛": 1211,
      "℃": 1212,
      "ℓ": 1213,
      "℔": 1214,
      "№": 1215,
      "™": 1216,
      "Ω": 1217,
      "℮": 1218,
      "⅓": 1219,
      "⅔": 1220,
      "⅛": 1221,
      "⅞": 1222,
      "Ⅱ": 1223,
      "←": 1224,
      "↑": 1225,
      "→": 1226,
      "↓": 1227,
      "↔": 1228,
      "↧": 1229,
      "⇒": 1230,
      "⇔": 1231,
      "⇗": 1232,
      "⇢": 1233,
      "∀": 1234,
      "∃": 1235,
      "∈": 1236,
      "∑": 1237,
      "−": 1238,
      "∙": 1239,
      "√": 1240,
      "∞": 1241,
      "∫": 1242,
      "∴": 1243,
      "∶": 1244,
      "∼": 1245,
      "≈": 1246,
      "≠": 1247,
      "≡": 1248,
      "≤": 1249,
      "≥": 1250,
      "≪": 1251,
      "≫": 1252,
      "⋅": 1253,
      "⌃": 1254,
      "⌘": 1255,
      "①": 1256,
      "②": 1257,
      "③": 1258,
      "─": 1259,
      "│": 1260,
      "┌": 1261,
      "┐": 1262,
      "└": 1263,
      "┘": 1264,
      "┬": 1265,
      "┴": 1266,
      "╚": 1267,
      "╞": 1268,
      "╩": 1269,
      "█": 1270,
      "░": 1271,
      "▒": 1272,
      "■": 1273,
      "□": 1274,
      "▪": 1275,
      "▲": 1276,
      "△": 1277,
      "▸": 1278,
      "►": 1279,
      "▼": 1280,
      "◆": 1281,
      "◇": 1282,
      "◈": 1283,
      "◊": 1284,
      "○": 1285,
      "◎": 1286,
      "●": 1287,
      "◙": 1288,
      "◦": 1289,
      "★": 1290,
      "☆": 1291,
      "☎": 1292,
      "☏": 1293,
      "☑": 1294,
      "☯": 1295,
      "☺": 1296,
      "☻": 1297,
      "☼": 1298,
      "♀": 1299,
      "♂": 1300,
      "♠": 1301,
      "♣": 1302,
      "♥": 1303,
      "♦": 1304,
      "♪": 1305,
      "♫": 1306,
      "✿": 1307,
      "➔": 1308,
      "➚": 1309,
      "➟": 1310,
      "➲": 1311,
      "Ⰶ": 1312,
      "ⲉ": 1313,
      "ⲟ": 1314,
      "Ⲡ": 1315,
      "ⲣ": 1316,
      "ⲩ": 1317,
      "、": 1318,
      "。": 1319,
      "々": 1320,
      "《": 1321,
      "》": 1322,
      "「": 1323,
      "」": 1324,
      "『": 1325,
      "』": 1326,
      "【": 1327,
      "】": 1328,
      "〔": 1329,
      "〕": 1330,
      "〜": 1331,
      "ぁ": 1332,
      "あ": 1333,
      "ぃ": 1334,
      "い": 1335,
      "う": 1336,
      "ぇ": 1337,
      "え": 1338,
      "お": 1339,
      "か": 1340,
      "が": 1341,
      "き": 1342,
      "ぎ": 1343,
      "く": 1344,
      "ぐ": 1345,
      "け": 1346,
      "げ": 1347,
      "こ": 1348,
      "ご": 1349,
      "さ": 1350,
      "ざ": 1351,
      "し": 1352,
      "じ": 1353,
      "す": 1354,
      "ず": 1355,
      "せ": 1356,
      "ぜ": 1357,
      "そ": 1358,
      "ぞ": 1359,
      "た": 1360,
      "だ": 1361,
      "ち": 1362,
      "ぢ": 1363,
      "っ": 1364,
      "つ": 1365,
      "づ": 1366,
      "て": 1367,
      "で": 1368,
      "と": 1369,
      "ど": 1370,
      "な": 1371,
      "に": 1372,
      "ぬ": 1373,
      "ね": 1374,
      "の": 1375,
      "は": 1376,
      "ば": 1377,
      "ひ": 1378,
      "び": 1379,
      "ふ": 1380,
      "ぶ": 1381,
      "ぷ": 1382,
      "へ": 1383,
      "べ": 1384,
      "ほ": 1385,
      "ぼ": 1386,
      "ま": 1387,
      "み": 1388,
      "む": 1389,
      "め": 1390,
      "も": 1391,
      "ゃ": 1392,
      "や": 1393,
      "ゅ": 1394,
      "ゆ": 1395,
      "ょ": 1396,
      "よ": 1397,
      "ら": 1398,
      "り": 1399,
      "る": 1400,
      "れ": 1401,
      "ろ": 1402,
      "わ": 1403,
      "ゐ": 1404,
      "ゑ": 1405,
      "を": 1406,
      "ん": 1407,
      "ゔ": 1408,
      "゛": 1409,
      "゜": 1410,
      "ァ": 1411,
      "ア": 1412,
      "ィ": 1413,
      "イ": 1414,
      "ゥ": 1415,
      "ウ": 1416,
      "ェ": 1417,
      "エ": 1418,
      "ォ": 1419,
      "オ": 1420,
      "カ": 1421,
      "ガ": 1422,
      "キ": 1423,
      "ギ": 1424,
      "ク": 1425,
      "グ": 1426,
      "ケ": 1427,
      "ゲ": 1428,
      "コ": 1429,
      "ゴ": 1430,
      "サ": 1431,
      "ザ": 1432,
      "シ": 1433,
      "ジ": 1434,
      "ス": 1435,
      "ズ": 1436,
      "セ": 1437,
      "ゼ": 1438,
      "ソ": 1439,
      "ゾ": 1440,
      "タ": 1441,
      "ダ": 1442,
      "チ": 1443,
      "ッ": 1444,
      "ツ": 1445,
      "テ": 1446,
      "デ": 1447,
      "ト": 1448,
      "ド": 1449,
      "ナ": 1450,
      "ニ": 1451,
      "ヌ": 1452,
      "ネ": 1453,
      "ノ": 1454,
      "ハ": 1455,
      "バ": 1456,
      "パ": 1457,
      "ヒ": 1458,
      "ビ": 1459,
      "ピ": 1460,
      "フ": 1461,
      "ブ": 1462,
      "プ": 1463,
      "ヘ": 1464,
      "ベ": 1465,
      "ペ": 1466,
      "ホ": 1467,
      "ボ": 1468,
      "ポ": 1469,
      "マ": 1470,
      "ミ": 1471,
      "ム": 1472,
      "メ": 1473,
      "モ": 1474,
      "ャ": 1475,
      "ヤ": 1476,
      "ュ": 1477,
      "ユ": 1478,
      "ョ": 1479,
      "ヨ": 1480,
      "ラ": 1481,
      "リ": 1482,
      "ル": 1483,
      "レ": 1484,
      "ロ": 1485,
      "ワ": 1486,
      "ン": 1487,
      "ヴ": 1488,
      "・": 1489,
      "ー": 1490,
      "ㄅ": 1491,
      "ㄆ": 1492,
      "ㄇ": 1493,
      "ㄈ": 1494,
      "ㄤ": 1495,
      "ㄧ": 1496,
      "ㅓ": 1497,
      "ㅔ": 1498,
      "ㅕ": 1499,
      "ㅖ": 1500,
      "ㅡ": 1501,
      "ㅣ": 1502,
      "㎡": 1503,
      "䟩": 1504,
      "一": 1505,
      "七": 1506,
      "万": 1507,
      "丈": 1508,
      "三": 1509,
      "上": 1510,
      "下": 1511,
      "不": 1512,
      "与": 1513,
      "专": 1514,
      "世": 1515,
      "丘": 1516,
      "业": 1517,
      "东": 1518,
      "两": 1519,
      "严": 1520,
      "丨": 1521,
      "个": 1522,
      "中": 1523,
      "丰": 1524,
      "临": 1525,
      "丸": 1526,
      "丹": 1527,
      "为": 1528,
      "主": 1529,
      "丼": 1530,
      "丽": 1531,
      "举": 1532,
      "久": 1533,
      "么": 1534,
      "义": 1535,
      "之": 1536,
      "乌": 1537,
      "乎": 1538,
      "乏": 1539,
      "乐": 1540,
      "乗": 1541,
      "乘": 1542,
      "乙": 1543,
      "九": 1544,
      "也": 1545,
      "习": 1546,
      "乡": 1547,
      "书": 1548,
      "买": 1549,
      "乱": 1550,
      "乾": 1551,
      "了": 1552,
      "争": 1553,
      "事": 1554,
      "二": 1555,
      "于": 1556,
      "云": 1557,
      "互": 1558,
      "五": 1559,
      "井": 1560,
      "亚": 1561,
      "些": 1562,
      "亜": 1563,
      "亞": 1564,
      "交": 1565,
      "产": 1566,
      "亨": 1567,
      "京": 1568,
      "人": 1569,
      "亿": 1570,
      "什": 1571,
      "仁": 1572,
      "仅": 1573,
      "今": 1574,
      "介": 1575,
      "仍": 1576,
      "从": 1577,
      "他": 1578,
      "付": 1579,
      "仙": 1580,
      "仝": 1581,
      "代": 1582,
      "以": 1583,
      "仪": 1584,
      "们": 1585,
      "仮": 1586,
      "仲": 1587,
      "件": 1588,
      "价": 1589,
      "任": 1590,
      "伊": 1591,
      "伎": 1592,
      "伏": 1593,
      "伐": 1594,
      "休": 1595,
      "众": 1596,
      "会": 1597,
      "伝": 1598,
      "伟": 1599,
      "传": 1600,
      "伦": 1601,
      "伯": 1602,
      "估": 1603,
      "伴": 1604,
      "伸": 1605,
      "似": 1606,
      "但": 1607,
      "位": 1608,
      "低": 1609,
      "住": 1610,
      "佐": 1611,
      "佑": 1612,
      "体": 1613,
      "何": 1614,
      "佗": 1615,
      "余": 1616,
      "作": 1617,
      "你": 1618,
      "佰": 1619,
      "使": 1620,
      "例": 1621,
      "侍": 1622,
      "供": 1623,
      "依": 1624,
      "便": 1625,
      "俊": 1626,
      "保": 1627,
      "信": 1628,
      "修": 1629,
      "倉": 1630,
      "個": 1631,
      "倍": 1632,
      "倒": 1633,
      "候": 1634,
      "值": 1635,
      "假": 1636,
      "做": 1637,
      "健": 1638,
      "側": 1639,
      "備": 1640,
      "储": 1641,
      "傳": 1642,
      "傷": 1643,
      "働": 1644,
      "像": 1645,
      "儀": 1646,
      "儉": 1647,
      "元": 1648,
      "先": 1649,
      "光": 1650,
      "克": 1651,
      "免": 1652,
      "入": 1653,
      "內": 1654,
      "全": 1655,
      "兩": 1656,
      "八": 1657,
      "公": 1658,
      "六": 1659,
      "兰": 1660,
      "共": 1661,
      "关": 1662,
      "兴": 1663,
      "兵": 1664,
      "其": 1665,
      "具": 1666,
      "养": 1667,
      "兽": 1668,
      "内": 1669,
      "円": 1670,
      "冊": 1671,
      "册": 1672,
      "再": 1673,
      "写": 1674,
      "军": 1675,
      "农": 1676,
      "冤": 1677,
      "冰": 1678,
      "决": 1679,
      "况": 1680,
      "冷": 1681,
      "净": 1682,
      "凄": 1683,
      "准": 1684,
      "减": 1685,
      "几": 1686,
      "凶": 1687,
      "凸": 1688,
      "出": 1689,
      "函": 1690,
      "刀": 1691,
      "分": 1692,
      "切": 1693,
      "刑": 1694,
      "列": 1695,
      "刘": 1696,
      "则": 1697,
      "刚": 1698,
      "判": 1699,
      "別": 1700,
      "刨": 1701,
      "利": 1702,
      "别": 1703,
      "到": 1704,
      "制": 1705,
      "刺": 1706,
      "則": 1707,
      "前": 1708,
      "剑": 1709,
      "剣": 1710,
      "剥": 1711,
      "剧": 1712,
      "剩": 1713,
      "副": 1714,
      "創": 1715,
      "劇": 1716,
      "劉": 1717,
      "力": 1718,
      "功": 1719,
      "加": 1720,
      "务": 1721,
      "动": 1722,
      "助": 1723,
      "努": 1724,
      "劳": 1725,
      "势": 1726,
      "動": 1727,
      "勝": 1728,
      "勞": 1729,
      "勢": 1730,
      "勧": 1731,
      "勿": 1732,
      "包": 1733,
      "化": 1734,
      "北": 1735,
      "匠": 1736,
      "匡": 1737,
      "匹": 1738,
      "区": 1739,
      "医": 1740,
      "匿": 1741,
      "區": 1742,
      "十": 1743,
      "千": 1744,
      "升": 1745,
      "半": 1746,
      "卍": 1747,
      "华": 1748,
      "协": 1749,
      "卐": 1750,
      "卓": 1751,
      "单": 1752,
      "卖": 1753,
      "南": 1754,
      "博": 1755,
      "卡": 1756,
      "卦": 1757,
      "卫": 1758,
      "印": 1759,
      "危": 1760,
      "即": 1761,
      "却": 1762,
      "厂": 1763,
      "原": 1764,
      "去": 1765,
      "县": 1766,
      "参": 1767,
      "參": 1768,
      "及": 1769,
      "友": 1770,
      "双": 1771,
      "反": 1772,
      "发": 1773,
      "取": 1774,
      "受": 1775,
      "变": 1776,
      "叡": 1777,
      "口": 1778,
      "古": 1779,
      "另": 1780,
      "只": 1781,
      "叫": 1782,
      "召": 1783,
      "可": 1784,
      "台": 1785,
      "史": 1786,
      "右": 1787,
      "号": 1788,
      "司": 1789,
      "吃": 1790,
      "各": 1791,
      "合": 1792,
      "吉": 1793,
      "吊": 1794,
      "同": 1795,
      "名": 1796,
      "后": 1797,
      "向": 1798,
      "吗": 1799,
      "君": 1800,
      "否": 1801,
      "吧": 1802,
      "含": 1803,
      "听": 1804,
      "吳": 1805,
      "吴": 1806,
      "吸": 1807,
      "吹": 1808,
      "吾": 1809,
      "呀": 1810,
      "呂": 1811,
      "呆": 1812,
      "呉": 1813,
      "告": 1814,
      "呑": 1815,
      "员": 1816,
      "周": 1817,
      "味": 1818,
      "呼": 1819,
      "命": 1820,
      "咆": 1821,
      "和": 1822,
      "咬": 1823,
      "品": 1824,
      "哈": 1825,
      "响": 1826,
      "員": 1827,
      "哥": 1828,
      "哮": 1829,
      "哲": 1830,
      "唐": 1831,
      "售": 1832,
      "唸": 1833,
      "商": 1834,
      "問": 1835,
      "啤": 1836,
      "啦": 1837,
      "喀": 1838,
      "喂": 1839,
      "善": 1840,
      "喇": 1841,
      "喜": 1842,
      "喫": 1843,
      "嗣": 1844,
      "嘉": 1845,
      "嘛": 1846,
      "嘟": 1847,
      "噌": 1848,
      "噛": 1849,
      "器": 1850,
      "嚴": 1851,
      "四": 1852,
      "回": 1853,
      "因": 1854,
      "団": 1855,
      "囧": 1856,
      "园": 1857,
      "困": 1858,
      "固": 1859,
      "国": 1860,
      "图": 1861,
      "圆": 1862,
      "國": 1863,
      "圍": 1864,
      "圏": 1865,
      "園": 1866,
      "圓": 1867,
      "圖": 1868,
      "土": 1869,
      "在": 1870,
      "地": 1871,
      "圳": 1872,
      "场": 1873,
      "坂": 1874,
      "均": 1875,
      "坊": 1876,
      "坐": 1877,
      "块": 1878,
      "坝": 1879,
      "坡": 1880,
      "坤": 1881,
      "坪": 1882,
      "型": 1883,
      "垣": 1884,
      "城": 1885,
      "埔": 1886,
      "域": 1887,
      "基": 1888,
      "堂": 1889,
      "堆": 1890,
      "堤": 1891,
      "堰": 1892,
      "報": 1893,
      "場": 1894,
      "塊": 1895,
      "塔": 1896,
      "塗": 1897,
      "塞": 1898,
      "塩": 1899,
      "塾": 1900,
      "増": 1901,
      "增": 1902,
      "墟": 1903,
      "墩": 1904,
      "壊": 1905,
      "士": 1906,
      "壮": 1907,
      "売": 1908,
      "壳": 1909,
      "壹": 1910,
      "壽": 1911,
      "处": 1912,
      "备": 1913,
      "変": 1914,
      "复": 1915,
      "夏": 1916,
      "夕": 1917,
      "外": 1918,
      "多": 1919,
      "夛": 1920,
      "夜": 1921,
      "够": 1922,
      "夢": 1923,
      "大": 1924,
      "天": 1925,
      "太": 1926,
      "夫": 1927,
      "央": 1928,
      "头": 1929,
      "夷": 1930,
      "夹": 1931,
      "奄": 1932,
      "奇": 1933,
      "奈": 1934,
      "奉": 1935,
      "套": 1936,
      "奘": 1937,
      "奚": 1938,
      "女": 1939,
      "奶": 1940,
      "好": 1941,
      "如": 1942,
      "妖": 1943,
      "妤": 1944,
      "妨": 1945,
      "妻": 1946,
      "始": 1947,
      "委": 1948,
      "威": 1949,
      "娃": 1950,
      "娄": 1951,
      "娣": 1952,
      "娥": 1953,
      "娱": 1954,
      "婁": 1955,
      "婦": 1956,
      "媛": 1957,
      "子": 1958,
      "字": 1959,
      "存": 1960,
      "季": 1961,
      "学": 1962,
      "孴": 1963,
      "學": 1964,
      "宁": 1965,
      "它": 1966,
      "宇": 1967,
      "安": 1968,
      "宋": 1969,
      "完": 1970,
      "宏": 1971,
      "宗": 1972,
      "官": 1973,
      "定": 1974,
      "宜": 1975,
      "宝": 1976,
      "实": 1977,
      "実": 1978,
      "客": 1979,
      "宣": 1980,
      "室": 1981,
      "宫": 1982,
      "宮": 1983,
      "宰": 1984,
      "家": 1985,
      "容": 1986,
      "宿": 1987,
      "寄": 1988,
      "密": 1989,
      "富": 1990,
      "寤": 1991,
      "實": 1992,
      "寧": 1993,
      "寨": 1994,
      "寳": 1995,
      "寶": 1996,
      "寸": 1997,
      "对": 1998,
      "寺": 1999,
      "寻": 2000,
      "寿": 2001,
      "専": 2002,
      "将": 2003,
      "小": 2004,
      "少": 2005,
      "尔": 2006,
      "尘": 2007,
      "就": 2008,
      "尽": 2009,
      "尾": 2010,
      "尿": 2011,
      "局": 2012,
      "居": 2013,
      "屈": 2014,
      "届": 2015,
      "屋": 2016,
      "屏": 2017,
      "展": 2018,
      "属": 2019,
      "屯": 2020,
      "山": 2021,
      "屿": 2022,
      "岐": 2023,
      "岗": 2024,
      "岛": 2025,
      "岡": 2026,
      "岩": 2027,
      "岭": 2028,
      "岳": 2029,
      "岷": 2030,
      "岸": 2031,
      "島": 2032,
      "峻": 2033,
      "峽": 2034,
      "崎": 2035,
      "崔": 2036,
      "崖": 2037,
      "崩": 2038,
      "嵥": 2039,
      "嶺": 2040,
      "嶼": 2041,
      "川": 2042,
      "州": 2043,
      "工": 2044,
      "左": 2045,
      "巧": 2046,
      "巨": 2047,
      "差": 2048,
      "己": 2049,
      "已": 2050,
      "巴": 2051,
      "巻": 2052,
      "市": 2053,
      "布": 2054,
      "师": 2055,
      "希": 2056,
      "帝": 2057,
      "帥": 2058,
      "带": 2059,
      "師": 2060,
      "席": 2061,
      "帯": 2062,
      "常": 2063,
      "幌": 2064,
      "幡": 2065,
      "幣": 2066,
      "干": 2067,
      "平": 2068,
      "年": 2069,
      "并": 2070,
      "幸": 2071,
      "幹": 2072,
      "幾": 2073,
      "广": 2074,
      "庁": 2075,
      "広": 2076,
      "庄": 2077,
      "庆": 2078,
      "序": 2079,
      "库": 2080,
      "应": 2081,
      "底": 2082,
      "店": 2083,
      "庚": 2084,
      "府": 2085,
      "废": 2086,
      "度": 2087,
      "座": 2088,
      "庫": 2089,
      "庭": 2090,
      "康": 2091,
      "廃": 2092,
      "廣": 2093,
      "建": 2094,
      "开": 2095,
      "弁": 2096,
      "异": 2097,
      "弄": 2098,
      "式": 2099,
      "弓": 2100,
      "弔": 2101,
      "引": 2102,
      "张": 2103,
      "弦": 2104,
      "張": 2105,
      "强": 2106,
      "当": 2107,
      "形": 2108,
      "彩": 2109,
      "彭": 2110,
      "彰": 2111,
      "影": 2112,
      "役": 2113,
      "彻": 2114,
      "征": 2115,
      "待": 2116,
      "很": 2117,
      "律": 2118,
      "後": 2119,
      "徐": 2120,
      "徒": 2121,
      "得": 2122,
      "御": 2123,
      "復": 2124,
      "循": 2125,
      "微": 2126,
      "徳": 2127,
      "德": 2128,
      "徹": 2129,
      "徽": 2130,
      "心": 2131,
      "必": 2132,
      "忆": 2133,
      "忍": 2134,
      "志": 2135,
      "応": 2136,
      "忠": 2137,
      "快": 2138,
      "念": 2139,
      "忽": 2140,
      "态": 2141,
      "怒": 2142,
      "思": 2143,
      "怡": 2144,
      "急": 2145,
      "性": 2146,
      "怪": 2147,
      "总": 2148,
      "恋": 2149,
      "恩": 2150,
      "息": 2151,
      "恵": 2152,
      "悟": 2153,
      "悠": 2154,
      "患": 2155,
      "您": 2156,
      "悩": 2157,
      "悪": 2158,
      "悬": 2159,
      "情": 2160,
      "惠": 2161,
      "惧": 2162,
      "惯": 2163,
      "想": 2164,
      "意": 2165,
      "愛": 2166,
      "感": 2167,
      "慈": 2168,
      "態": 2169,
      "慎": 2170,
      "慢": 2171,
      "慣": 2172,
      "慶": 2173,
      "憨": 2174,
      "憩": 2175,
      "憶": 2176,
      "憾": 2177,
      "應": 2178,
      "成": 2179,
      "我": 2180,
      "戒": 2181,
      "或": 2182,
      "战": 2183,
      "截": 2184,
      "戴": 2185,
      "戶": 2186,
      "户": 2187,
      "戸": 2188,
      "戻": 2189,
      "房": 2190,
      "所": 2191,
      "手": 2192,
      "才": 2193,
      "打": 2194,
      "払": 2195,
      "找": 2196,
      "承": 2197,
      "技": 2198,
      "投": 2199,
      "抗": 2200,
      "折": 2201,
      "抜": 2202,
      "护": 2203,
      "报": 2204,
      "抵": 2205,
      "抹": 2206,
      "押": 2207,
      "担": 2208,
      "拉": 2209,
      "拒": 2210,
      "拓": 2211,
      "招": 2212,
      "拟": 2213,
      "择": 2214,
      "括": 2215,
      "拳": 2216,
      "拼": 2217,
      "拿": 2218,
      "持": 2219,
      "挂": 2220,
      "指": 2221,
      "按": 2222,
      "挑": 2223,
      "挠": 2224,
      "挡": 2225,
      "振": 2226,
      "损": 2227,
      "据": 2228,
      "捷": 2229,
      "掉": 2230,
      "排": 2231,
      "掛": 2232,
      "採": 2233,
      "探": 2234,
      "接": 2235,
      "控": 2236,
      "推": 2237,
      "措": 2238,
      "掻": 2239,
      "揂": 2240,
      "揃": 2241,
      "提": 2242,
      "揚": 2243,
      "換": 2244,
      "握": 2245,
      "援": 2246,
      "搅": 2247,
      "損": 2248,
      "搜": 2249,
      "搞": 2250,
      "携": 2251,
      "摂": 2252,
      "摆": 2253,
      "摇": 2254,
      "摩": 2255,
      "撒": 2256,
      "撤": 2257,
      "撫": 2258,
      "播": 2259,
      "撮": 2260,
      "操": 2261,
      "支": 2262,
      "收": 2263,
      "改": 2264,
      "攻": 2265,
      "放": 2266,
      "政": 2267,
      "故": 2268,
      "效": 2269,
      "敏": 2270,
      "救": 2271,
      "教": 2272,
      "散": 2273,
      "敦": 2274,
      "敬": 2275,
      "数": 2276,
      "整": 2277,
      "文": 2278,
      "斗": 2279,
      "料": 2280,
      "斯": 2281,
      "新": 2282,
      "方": 2283,
      "施": 2284,
      "旅": 2285,
      "族": 2286,
      "无": 2287,
      "日": 2288,
      "旧": 2289,
      "旨": 2290,
      "旭": 2291,
      "旱": 2292,
      "时": 2293,
      "昇": 2294,
      "昌": 2295,
      "明": 2296,
      "易": 2297,
      "星": 2298,
      "春": 2299,
      "昭": 2300,
      "是": 2301,
      "显": 2302,
      "時": 2303,
      "晏": 2304,
      "晨": 2305,
      "普": 2306,
      "景": 2307,
      "智": 2308,
      "暂": 2309,
      "暨": 2310,
      "暫": 2311,
      "暴": 2312,
      "曌": 2313,
      "曝": 2314,
      "更": 2315,
      "書": 2316,
      "曹": 2317,
      "曾": 2318,
      "最": 2319,
      "會": 2320,
      "月": 2321,
      "有": 2322,
      "服": 2323,
      "朔": 2324,
      "朗": 2325,
      "望": 2326,
      "朝": 2327,
      "期": 2328,
      "木": 2329,
      "未": 2330,
      "本": 2331,
      "札": 2332,
      "术": 2333,
      "朱": 2334,
      "机": 2335,
      "杂": 2336,
      "李": 2337,
      "杏": 2338,
      "材": 2339,
      "村": 2340,
      "束": 2341,
      "条": 2342,
      "来": 2343,
      "杨": 2344,
      "杭": 2345,
      "東": 2346,
      "松": 2347,
      "板": 2348,
      "极": 2349,
      "构": 2350,
      "析": 2351,
      "林": 2352,
      "果": 2353,
      "枡": 2354,
      "架": 2355,
      "某": 2356,
      "染": 2357,
      "柔": 2358,
      "查": 2359,
      "柱": 2360,
      "柴": 2361,
      "标": 2362,
      "树": 2363,
      "校": 2364,
      "株": 2365,
      "样": 2366,
      "根": 2367,
      "格": 2368,
      "栽": 2369,
      "桂": 2370,
      "桃": 2371,
      "框": 2372,
      "案": 2373,
      "桓": 2374,
      "桜": 2375,
      "桥": 2376,
      "桩": 2377,
      "桶": 2378,
      "梁": 2379,
      "梅": 2380,
      "梨": 2381,
      "械": 2382,
      "检": 2383,
      "棒": 2384,
      "森": 2385,
      "棲": 2386,
      "椅": 2387,
      "植": 2388,
      "検": 2389,
      "業": 2390,
      "極": 2391,
      "楼": 2392,
      "楽": 2393,
      "樓": 2394,
      "標": 2395,
      "模": 2396,
      "横": 2397,
      "樹": 2398,
      "橋": 2399,
      "機": 2400,
      "橿": 2401,
      "檀": 2402,
      "次": 2403,
      "欢": 2404,
      "欧": 2405,
      "款": 2406,
      "歌": 2407,
      "止": 2408,
      "正": 2409,
      "此": 2410,
      "步": 2411,
      "武": 2412,
      "歩": 2413,
      "歳": 2414,
      "歸": 2415,
      "死": 2416,
      "殊": 2417,
      "段": 2418,
      "殷": 2419,
      "殻": 2420,
      "殿": 2421,
      "毁": 2422,
      "母": 2423,
      "毎": 2424,
      "每": 2425,
      "毓": 2426,
      "比": 2427,
      "毛": 2428,
      "氏": 2429,
      "民": 2430,
      "气": 2431,
      "気": 2432,
      "氣": 2433,
      "氧": 2434,
      "氮": 2435,
      "水": 2436,
      "永": 2437,
      "汁": 2438,
      "求": 2439,
      "汇": 2440,
      "汉": 2441,
      "汕": 2442,
      "江": 2443,
      "池": 2444,
      "汤": 2445,
      "汴": 2446,
      "決": 2447,
      "沈": 2448,
      "沙": 2449,
      "沛": 2450,
      "没": 2451,
      "沢": 2452,
      "沪": 2453,
      "沱": 2454,
      "河": 2455,
      "油": 2456,
      "治": 2457,
      "沿": 2458,
      "況": 2459,
      "泄": 2460,
      "泉": 2461,
      "泊": 2462,
      "法": 2463,
      "波": 2464,
      "泥": 2465,
      "注": 2466,
      "泰": 2467,
      "泽": 2468,
      "洁": 2469,
      "洋": 2470,
      "洗": 2471,
      "洛": 2472,
      "洞": 2473,
      "洪": 2474,
      "洲": 2475,
      "活": 2476,
      "派": 2477,
      "流": 2478,
      "浄": 2479,
      "测": 2480,
      "济": 2481,
      "浙": 2482,
      "浜": 2483,
      "浦": 2484,
      "浮": 2485,
      "浴": 2486,
      "海": 2487,
      "涂": 2488,
      "消": 2489,
      "涌": 2490,
      "深": 2491,
      "混": 2492,
      "淹": 2493,
      "清": 2494,
      "済": 2495,
      "渋": 2496,
      "渐": 2497,
      "渝": 2498,
      "渡": 2499,
      "温": 2500,
      "港": 2501,
      "渲": 2502,
      "渴": 2503,
      "游": 2504,
      "湖": 2505,
      "湘": 2506,
      "湯": 2507,
      "湾": 2508,
      "満": 2509,
      "溉": 2510,
      "源": 2511,
      "溜": 2512,
      "溝": 2513,
      "溢": 2514,
      "溥": 2515,
      "溪": 2516,
      "溫": 2517,
      "溯": 2518,
      "滇": 2519,
      "滞": 2520,
      "滨": 2521,
      "滬": 2522,
      "漢": 2523,
      "漫": 2524,
      "潜": 2525,
      "潟": 2526,
      "潢": 2527,
      "潭": 2528,
      "潮": 2529,
      "澄": 2530,
      "澎": 2531,
      "澤": 2532,
      "澳": 2533,
      "激": 2534,
      "濟": 2535,
      "濱": 2536,
      "灌": 2537,
      "灣": 2538,
      "火": 2539,
      "灯": 2540,
      "灰": 2541,
      "灾": 2542,
      "炎": 2543,
      "炯": 2544,
      "点": 2545,
      "為": 2546,
      "烈": 2547,
      "烏": 2548,
      "烦": 2549,
      "烧": 2550,
      "热": 2551,
      "無": 2552,
      "焦": 2553,
      "然": 2554,
      "焼": 2555,
      "煙": 2556,
      "照": 2557,
      "煩": 2558,
      "煮": 2559,
      "熊": 2560,
      "熟": 2561,
      "熨": 2562,
      "熱": 2563,
      "燃": 2564,
      "燕": 2565,
      "燗": 2566,
      "爆": 2567,
      "爛": 2568,
      "爪": 2569,
      "爱": 2570,
      "父": 2571,
      "爻": 2572,
      "爾": 2573,
      "片": 2574,
      "版": 2575,
      "牌": 2576,
      "牙": 2577,
      "牛": 2578,
      "物": 2579,
      "特": 2580,
      "状": 2581,
      "狐": 2582,
      "狗": 2583,
      "独": 2584,
      "猛": 2585,
      "猪": 2586,
      "献": 2587,
      "玄": 2588,
      "率": 2589,
      "玉": 2590,
      "王": 2591,
      "环": 2592,
      "现": 2593,
      "珈": 2594,
      "珍": 2595,
      "珠": 2596,
      "班": 2597,
      "球": 2598,
      "理": 2599,
      "琢": 2600,
      "琲": 2601,
      "瑠": 2602,
      "瑩": 2603,
      "璃": 2604,
      "璐": 2605,
      "環": 2606,
      "瓊": 2607,
      "瓶": 2608,
      "甜": 2609,
      "生": 2610,
      "用": 2611,
      "田": 2612,
      "由": 2613,
      "甲": 2614,
      "申": 2615,
      "电": 2616,
      "男": 2617,
      "甸": 2618,
      "町": 2619,
      "画": 2620,
      "界": 2621,
      "留": 2622,
      "畢": 2623,
      "略": 2624,
      "番": 2625,
      "畿": 2626,
      "疆": 2627,
      "疏": 2628,
      "疑": 2629,
      "疗": 2630,
      "疫": 2631,
      "病": 2632,
      "痛": 2633,
      "痴": 2634,
      "瘤": 2635,
      "癌": 2636,
      "発": 2637,
      "登": 2638,
      "白": 2639,
      "百": 2640,
      "的": 2641,
      "皇": 2642,
      "皮": 2643,
      "盆": 2644,
      "益": 2645,
      "盐": 2646,
      "监": 2647,
      "盗": 2648,
      "盛": 2649,
      "監": 2650,
      "盧": 2651,
      "目": 2652,
      "直": 2653,
      "相": 2654,
      "省": 2655,
      "看": 2656,
      "県": 2657,
      "真": 2658,
      "眩": 2659,
      "眼": 2660,
      "着": 2661,
      "睛": 2662,
      "睦": 2663,
      "瞎": 2664,
      "瞻": 2665,
      "矢": 2666,
      "知": 2667,
      "短": 2668,
      "石": 2669,
      "矿": 2670,
      "码": 2671,
      "砂": 2672,
      "破": 2673,
      "确": 2674,
      "碁": 2675,
      "碍": 2676,
      "碧": 2677,
      "碳": 2678,
      "確": 2679,
      "磁": 2680,
      "磨": 2681,
      "磷": 2682,
      "礱": 2683,
      "示": 2684,
      "礼": 2685,
      "社": 2686,
      "祖": 2687,
      "祝": 2688,
      "神": 2689,
      "票": 2690,
      "祭": 2691,
      "祸": 2692,
      "祿": 2693,
      "禁": 2694,
      "禅": 2695,
      "福": 2696,
      "禪": 2697,
      "禹": 2698,
      "禽": 2699,
      "秀": 2700,
      "私": 2701,
      "秉": 2702,
      "秋": 2703,
      "种": 2704,
      "科": 2705,
      "租": 2706,
      "秦": 2707,
      "积": 2708,
      "称": 2709,
      "移": 2710,
      "稀": 2711,
      "稅": 2712,
      "程": 2713,
      "税": 2714,
      "稱": 2715,
      "稲": 2716,
      "稳": 2717,
      "稻": 2718,
      "稼": 2719,
      "稿": 2720,
      "穷": 2721,
      "空": 2722,
      "立": 2723,
      "站": 2724,
      "竞": 2725,
      "章": 2726,
      "端": 2727,
      "競": 2728,
      "竹": 2729,
      "笠": 2730,
      "第": 2731,
      "筆": 2732,
      "等": 2733,
      "筑": 2734,
      "答": 2735,
      "策": 2736,
      "签": 2737,
      "简": 2738,
      "箍": 2739,
      "箕": 2740,
      "管": 2741,
      "箱": 2742,
      "節": 2743,
      "篇": 2744,
      "簡": 2745,
      "米": 2746,
      "类": 2747,
      "粉": 2748,
      "粤": 2749,
      "粮": 2750,
      "粵": 2751,
      "精": 2752,
      "糖": 2753,
      "系": 2754,
      "紂": 2755,
      "紅": 2756,
      "紋": 2757,
      "納": 2758,
      "純": 2759,
      "紙": 2760,
      "級": 2761,
      "素": 2762,
      "索": 2763,
      "紧": 2764,
      "細": 2765,
      "紹": 2766,
      "終": 2767,
      "経": 2768,
      "結": 2769,
      "絞": 2770,
      "統": 2771,
      "經": 2772,
      "継": 2773,
      "続": 2774,
      "網": 2775,
      "綺": 2776,
      "総": 2777,
      "線": 2778,
      "縣": 2779,
      "縮": 2780,
      "繁": 2781,
      "織": 2782,
      "红": 2783,
      "约": 2784,
      "级": 2785,
      "纷": 2786,
      "纸": 2787,
      "纹": 2788,
      "纽": 2789,
      "线": 2790,
      "组": 2791,
      "细": 2792,
      "终": 2793,
      "绍": 2794,
      "经": 2795,
      "绝": 2796,
      "绞": 2797,
      "统": 2798,
      "续": 2799,
      "维": 2800,
      "缓": 2801,
      "缩": 2802,
      "缺": 2803,
      "网": 2804,
      "罗": 2805,
      "罪": 2806,
      "置": 2807,
      "署": 2808,
      "羅": 2809,
      "美": 2810,
      "群": 2811,
      "義": 2812,
      "羲": 2813,
      "羽": 2814,
      "翁": 2815,
      "習": 2816,
      "翠": 2817,
      "翻": 2818,
      "翼": 2819,
      "耀": 2820,
      "老": 2821,
      "考": 2822,
      "者": 2823,
      "而": 2824,
      "耐": 2825,
      "耕": 2826,
      "耳": 2827,
      "耶": 2828,
      "耸": 2829,
      "联": 2830,
      "聖": 2831,
      "聞": 2832,
      "聼": 2833,
      "肉": 2834,
      "股": 2835,
      "肥": 2836,
      "育": 2837,
      "胁": 2838,
      "背": 2839,
      "胖": 2840,
      "胜": 2841,
      "胞": 2842,
      "胡": 2843,
      "能": 2844,
      "脑": 2845,
      "脖": 2846,
      "脚": 2847,
      "脱": 2848,
      "腔": 2849,
      "腹": 2850,
      "腺": 2851,
      "膚": 2852,
      "臂": 2853,
      "臈": 2854,
      "臓": 2855,
      "臘": 2856,
      "臣": 2857,
      "臧": 2858,
      "臨": 2859,
      "自": 2860,
      "至": 2861,
      "致": 2862,
      "臺": 2863,
      "舁": 2864,
      "舅": 2865,
      "興": 2866,
      "舊": 2867,
      "舍": 2868,
      "舐": 2869,
      "舖": 2870,
      "舞": 2871,
      "舣": 2872,
      "舩": 2873,
      "航": 2874,
      "舫": 2875,
      "般": 2876,
      "艮": 2877,
      "良": 2878,
      "色": 2879,
      "艳": 2880,
      "节": 2881,
      "芋": 2882,
      "芝": 2883,
      "芦": 2884,
      "花": 2885,
      "苏": 2886,
      "苑": 2887,
      "若": 2888,
      "英": 2889,
      "茜": 2890,
      "茨": 2891,
      "茶": 2892,
      "草": 2893,
      "荣": 2894,
      "荷": 2895,
      "莞": 2896,
      "莨": 2897,
      "莲": 2898,
      "获": 2899,
      "莹": 2900,
      "菜": 2901,
      "菩": 2902,
      "華": 2903,
      "菱": 2904,
      "营": 2905,
      "萬": 2906,
      "落": 2907,
      "葉": 2908,
      "著": 2909,
      "董": 2910,
      "蒋": 2911,
      "蒸": 2912,
      "蓟": 2913,
      "蓮": 2914,
      "蔓": 2915,
      "蔚": 2916,
      "蔣": 2917,
      "蕭": 2918,
      "蕴": 2919,
      "薊": 2920,
      "薯": 2921,
      "藍": 2922,
      "藏": 2923,
      "藕": 2924,
      "藤": 2925,
      "蘇": 2926,
      "虑": 2927,
      "號": 2928,
      "虫": 2929,
      "蛋": 2930,
      "蜀": 2931,
      "蝦": 2932,
      "融": 2933,
      "螨": 2934,
      "螳": 2935,
      "血": 2936,
      "衆": 2937,
      "行": 2938,
      "術": 2939,
      "街": 2940,
      "衡": 2941,
      "表": 2942,
      "裂": 2943,
      "装": 2944,
      "裕": 2945,
      "製": 2946,
      "西": 2947,
      "要": 2948,
      "見": 2949,
      "覧": 2950,
      "親": 2951,
      "観": 2952,
      "覺": 2953,
      "见": 2954,
      "观": 2955,
      "视": 2956,
      "觉": 2957,
      "角": 2958,
      "解": 2959,
      "触": 2960,
      "言": 2961,
      "訃": 2962,
      "訊": 2963,
      "討": 2964,
      "訓": 2965,
      "記": 2966,
      "設": 2967,
      "許": 2968,
      "訳": 2969,
      "試": 2970,
      "詩": 2971,
      "詰": 2972,
      "話": 2973,
      "詳": 2974,
      "詹": 2975,
      "語": 2976,
      "說": 2977,
      "説": 2978,
      "読": 2979,
      "調": 2980,
      "談": 2981,
      "請": 2982,
      "論": 2983,
      "諸": 2984,
      "謑": 2985,
      "證": 2986,
      "警": 2987,
      "譯": 2988,
      "護": 2989,
      "讃": 2990,
      "變": 2991,
      "计": 2992,
      "讣": 2993,
      "认": 2994,
      "讨": 2995,
      "让": 2996,
      "议": 2997,
      "讯": 2998,
      "记": 2999,
      "讲": 3000,
      "许": 3001,
      "论": 3002,
      "讼": 3003,
      "设": 3004,
      "证": 3005,
      "评": 3006,
      "识": 3007,
      "诉": 3008,
      "试": 3009,
      "诘": 3010,
      "话": 3011,
      "该": 3012,
      "详": 3013,
      "语": 3014,
      "说": 3015,
      "请": 3016,
      "诺": 3017,
      "调": 3018,
      "谈": 3019,
      "谋": 3020,
      "谢": 3021,
      "谷": 3022,
      "豆": 3023,
      "豊": 3024,
      "豐": 3025,
      "豫": 3026,
      "貌": 3027,
      "負": 3028,
      "財": 3029,
      "貢": 3030,
      "販": 3031,
      "貮": 3032,
      "貰": 3033,
      "貸": 3034,
      "費": 3035,
      "賀": 3036,
      "資": 3037,
      "賈": 3038,
      "賢": 3039,
      "贊": 3040,
      "贞": 3041,
      "负": 3042,
      "贡": 3043,
      "贤": 3044,
      "货": 3045,
      "质": 3046,
      "贫": 3047,
      "购": 3048,
      "贱": 3049,
      "贳": 3050,
      "贷": 3051,
      "贸": 3052,
      "资": 3053,
      "赌": 3054,
      "赖": 3055,
      "赛": 3056,
      "赞": 3057,
      "赤": 3058,
      "赵": 3059,
      "赶": 3060,
      "起": 3061,
      "超": 3062,
      "越": 3063,
      "趋": 3064,
      "趙": 3065,
      "足": 3066,
      "跆": 3067,
      "跟": 3068,
      "跨": 3069,
      "路": 3070,
      "踌": 3071,
      "蹟": 3072,
      "躇": 3073,
      "躊": 3074,
      "躍": 3075,
      "身": 3076,
      "車": 3077,
      "軍": 3078,
      "転": 3079,
      "較": 3080,
      "載": 3081,
      "輪": 3082,
      "车": 3083,
      "转": 3084,
      "轮": 3085,
      "轻": 3086,
      "载": 3087,
      "较": 3088,
      "辛": 3089,
      "辞": 3090,
      "辭": 3091,
      "辱": 3092,
      "農": 3093,
      "込": 3094,
      "达": 3095,
      "过": 3096,
      "迎": 3097,
      "运": 3098,
      "近": 3099,
      "返": 3100,
      "还": 3101,
      "这": 3102,
      "进": 3103,
      "远": 3104,
      "连": 3105,
      "迫": 3106,
      "述": 3107,
      "迷": 3108,
      "追": 3109,
      "送": 3110,
      "适": 3111,
      "逃": 3112,
      "选": 3113,
      "透": 3114,
      "途": 3115,
      "通": 3116,
      "速": 3117,
      "造": 3118,
      "逢": 3119,
      "連": 3120,
      "逸": 3121,
      "遇": 3122,
      "運": 3123,
      "過": 3124,
      "道": 3125,
      "達": 3126,
      "遗": 3127,
      "遝": 3128,
      "遠": 3129,
      "遣": 3130,
      "適": 3131,
      "遪": 3132,
      "遭": 3133,
      "遲": 3134,
      "遷": 3135,
      "遽": 3136,
      "避": 3137,
      "還": 3138,
      "邊": 3139,
      "邑": 3140,
      "那": 3141,
      "邱": 3142,
      "郎": 3143,
      "郑": 3144,
      "郝": 3145,
      "郡": 3146,
      "部": 3147,
      "郷": 3148,
      "都": 3149,
      "鄂": 3150,
      "鄉": 3151,
      "鄭": 3152,
      "酉": 3153,
      "配": 3154,
      "酎": 3155,
      "酒": 3156,
      "酸": 3157,
      "采": 3158,
      "釉": 3159,
      "里": 3160,
      "重": 3161,
      "野": 3162,
      "量": 3163,
      "金": 3164,
      "釣": 3165,
      "鈴": 3166,
      "鉄": 3167,
      "鉋": 3168,
      "銀": 3169,
      "銭": 3170,
      "鋍": 3171,
      "鋑": 3172,
      "鋒": 3173,
      "鋓": 3174,
      "鋖": 3175,
      "鋘": 3176,
      "鋜": 3177,
      "鋝": 3178,
      "鋞": 3179,
      "鋟": 3180,
      "録": 3181,
      "鍋": 3182,
      "鎚": 3183,
      "鏡": 3184,
      "鐵": 3185,
      "针": 3186,
      "钓": 3187,
      "钟": 3188,
      "钢": 3189,
      "钦": 3190,
      "钧": 3191,
      "钱": 3192,
      "铁": 3193,
      "铭": 3194,
      "银": 3195,
      "链": 3196,
      "销": 3197,
      "锈": 3198,
      "锋": 3199,
      "错": 3200,
      "锦": 3201,
      "键": 3202,
      "镜": 3203,
      "長": 3204,
      "长": 3205,
      "門": 3206,
      "開": 3207,
      "間": 3208,
      "関": 3209,
      "閣": 3210,
      "閥": 3211,
      "閩": 3212,
      "關": 3213,
      "门": 3214,
      "问": 3215,
      "间": 3216,
      "闵": 3217,
      "闻": 3218,
      "闽": 3219,
      "阜": 3220,
      "阪": 3221,
      "防": 3222,
      "阳": 3223,
      "阶": 3224,
      "阻": 3225,
      "阿": 3226,
      "陀": 3227,
      "际": 3228,
      "陈": 3229,
      "降": 3230,
      "限": 3231,
      "院": 3232,
      "除": 3233,
      "险": 3234,
      "陰": 3235,
      "陳": 3236,
      "陵": 3237,
      "陶": 3238,
      "陽": 3239,
      "隆": 3240,
      "隊": 3241,
      "際": 3242,
      "难": 3243,
      "雄": 3244,
      "雅": 3245,
      "集": 3246,
      "雙": 3247,
      "雛": 3248,
      "難": 3249,
      "雨": 3250,
      "雪": 3251,
      "雲": 3252,
      "雷": 3253,
      "電": 3254,
      "需": 3255,
      "霊": 3256,
      "霖": 3257,
      "霜": 3258,
      "露": 3259,
      "青": 3260,
      "静": 3261,
      "非": 3262,
      "靠": 3263,
      "面": 3264,
      "革": 3265,
      "靳": 3266,
      "韓": 3267,
      "音": 3268,
      "韻": 3269,
      "頂": 3270,
      "項": 3271,
      "順": 3272,
      "須": 3273,
      "頑": 3274,
      "領": 3275,
      "頭": 3276,
      "題": 3277,
      "顗": 3278,
      "顯": 3279,
      "页": 3280,
      "顶": 3281,
      "须": 3282,
      "顾": 3283,
      "预": 3284,
      "颐": 3285,
      "题": 3286,
      "颜": 3287,
      "额": 3288,
      "風": 3289,
      "风": 3290,
      "飛": 3291,
      "飞": 3292,
      "食": 3293,
      "飯": 3294,
      "飲": 3295,
      "飼": 3296,
      "館": 3297,
      "饮": 3298,
      "饲": 3299,
      "馆": 3300,
      "首": 3301,
      "香": 3302,
      "馬": 3303,
      "駄": 3304,
      "駅": 3305,
      "験": 3306,
      "騙": 3307,
      "騜": 3308,
      "驗": 3309,
      "马": 3310,
      "验": 3311,
      "骨": 3312,
      "髄": 3313,
      "體": 3314,
      "高": 3315,
      "鬼": 3316,
      "魔": 3317,
      "鮨": 3318,
      "鮮": 3319,
      "鯨": 3320,
      "鰀": 3321,
      "鰃": 3322,
      "鰄": 3323,
      "鰈": 3324,
      "鰊": 3325,
      "鰎": 3326,
      "鱲": 3327,
      "鱼": 3328,
      "鲁": 3329,
      "鲞": 3330,
      "鳩": 3331,
      "鳳": 3332,
      "鴻": 3333,
      "鵜": 3334,
      "鷹": 3335,
      "鸡": 3336,
      "鸭": 3337,
      "鸯": 3338,
      "鸳": 3339,
      "鹅": 3340,
      "鹈": 3341,
      "鹤": 3342,
      "鹿": 3343,
      "麗": 3344,
      "麩": 3345,
      "麺": 3346,
      "黃": 3347,
      "黄": 3348,
      "黎": 3349,
      "黒": 3350,
      "黚": 3351,
      "點": 3352,
      "黡": 3353,
      "黨": 3354,
      "黮": 3355,
      "黵": 3356,
      "黷": 3357,
      "鼻": 3358,
      "齋": 3359,
      "齡": 3360,
      "龍": 3361,
      "龙": 3362,
      "검": 3363,
      "겜": 3364,
      "경": 3365,
      "계": 3366,
      "고": 3367,
      "곡": 3368,
      "구": 3369,
      "국": 3370,
      "군": 3371,
      "권": 3372,
      "글": 3373,
      "김": 3374,
      "뀌": 3375,
      "나": 3376,
      "널": 3377,
      "녀": 3378,
      "년": 3379,
      "노": 3380,
      "누": 3381,
      "는": 3382,
      "니": 3383,
      "닌": 3384,
      "님": 3385,
      "다": 3386,
      "단": 3387,
      "당": 3388,
      "대": 3389,
      "도": 3390,
      "돌": 3391,
      "동": 3392,
      "드": 3393,
      "디": 3394,
      "딘": 3395,
      "딩": 3396,
      "라": 3397,
      "레": 3398,
      "려": 3399,
      "령": 3400,
      "로": 3401,
      "루": 3402,
      "류": 3403,
      "르": 3404,
      "린": 3405,
      "마": 3406,
      "막": 3407,
      "맨": 3408,
      "면": 3409,
      "목": 3410,
      "무": 3411,
      "문": 3412,
      "미": 3413,
      "바": 3414,
      "박": 3415,
      "반": 3416,
      "백": 3417,
      "뱅": 3418,
      "번": 3419,
      "벌": 3420,
      "법": 3421,
      "베": 3422,
      "변": 3423,
      "별": 3424,
      "보": 3425,
      "블": 3426,
      "비": 3427,
      "빅": 3428,
      "빌": 3429,
      "빛": 3430,
      "사": 3431,
      "산": 3432,
      "서": 3433,
      "선": 3434,
      "성": 3435,
      "세": 3436,
      "셀": 3437,
      "셔": 3438,
      "셜": 3439,
      "소": 3440,
      "수": 3441,
      "스": 3442,
      "습": 3443,
      "승": 3444,
      "시": 3445,
      "신": 3446,
      "싱": 3447,
      "아": 3448,
      "알": 3449,
      "압": 3450,
      "야": 3451,
      "양": 3452,
      "어": 3453,
      "었": 3454,
      "에": 3455,
      "엘": 3456,
      "엠": 3457,
      "영": 3458,
      "오": 3459,
      "왕": 3460,
      "요": 3461,
      "울": 3462,
      "웅": 3463,
      "워": 3464,
      "월": 3465,
      "웨": 3466,
      "위": 3467,
      "유": 3468,
      "율": 3469,
      "으": 3470,
      "을": 3471,
      "읍": 3472,
      "이": 3473,
      "인": 3474,
      "일": 3475,
      "자": 3476,
      "작": 3477,
      "적": 3478,
      "전": 3479,
      "정": 3480,
      "제": 3481,
      "조": 3482,
      "존": 3483,
      "종": 3484,
      "주": 3485,
      "지": 3486,
      "짝": 3487,
      "창": 3488,
      "천": 3489,
      "체": 3490,
      "추": 3491,
      "충": 3492,
      "층": 3493,
      "치": 3494,
      "클": 3495,
      "키": 3496,
      "킨": 3497,
      "태": 3498,
      "터": 3499,
      "턴": 3500,
      "톨": 3501,
      "퇴": 3502,
      "트": 3503,
      "티": 3504,
      "퍼": 3505,
      "폐": 3506,
      "피": 3507,
      "한": 3508,
      "향": 3509,
      "호": 3510,
      "환": 3511,
      "회": 3512,
      "훈": 3513,
      "": 3514,
      "": 3515,
      "": 3516,
      "": 3517,
      "": 3518,
      "": 3519,
      "": 3520,
      "": 3521,
      "": 3522,
      "": 3523,
      "": 3524,
      "": 3525,
      "": 3526,
      "": 3527,
      "": 3528,
      "": 3529,
      "": 3530,
      "": 3531,
      "": 3532,
      "": 3533,
      "": 3534,
      "": 3535,
      "": 3536,
      "": 3537,
      "": 3538,
      "": 3539,
      "": 3540,
      "金": 3541,
      "ﬁ": 3542,
      "ﬂ": 3543,
      "ﷲ": 3544,
      "︰": 3545,
      "ﺍ": 3546,
      "ﺏ": 3547,
      "ﺤ": 3548,
      "ﺩ": 3549,
      "ﻁ": 3550,
      "ﻙ": 3551,
      "ﻫ": 3552,
      "﻿": 3553,
      "！": 3554,
      "＄": 3555,
      "（": 3556,
      "）": 3557,
      "＊": 3558,
      "，": 3559,
      "－": 3560,
      "．": 3561,
      "１": 3562,
      "２": 3563,
      "７": 3564,
      "９": 3565,
      "：": 3566,
      "；": 3567,
      "？": 3568,
      "Ｉ": 3569,
      "Ｐ": 3570,
      "Ｓ": 3571,
      "Ｖ": 3572,
      "［": 3573,
      "］": 3574,
      "ｂ": 3575,
      "ｄ": 3576,
      "ｅ": 3577,
      "ｈ": 3578,
      "ｌ": 3579,
      "ｏ": 3580,
      "ｓ": 3581,
      "ｔ": 3582,
      "ｕ": 3583,
      "､": 3584,
      "･": 3585,
      "ｫ": 3586,
      "ｲ": 3587,
      "ｻ": 3588,
      "ｿ": 3589,
      "ﾜ": 3590,
      "ﾟ": 3591,
      "￠": 3592,
      "￡": 3593,
      "￥": 3594,
      "￼": 3595,
      "�": 3596,
      "𐌰": 3597,
      "𐌴": 3598,
      "𐌸": 3599,
      "𐌼": 3600,
      "𐌽": 3601,
      "𐍃": 3602,
      "𐍉": 3603,
      "𠐄": 3604,
      "𢥲": 3605,
      "𧵮": 3606,
      "𲠄": 3607,
      "𲠤": 3608,
      "򮬩": 3609,
      "򮮥": 3610,
      "򲤥": 3611,
      "򲵮": 3612,
      "򴩧": 3613,
      "en": 3614,
      "er": 3615,
      "in": 3616,
      "ch": 3617,
      "th": 3618,
      "an": 3619,
      "es": 3620,
      "on": 3621,
      "un": 3622,
      "is": 3623,
      "at": 3624,
      "it": 3625,
      "ie": 3626,
      "or": 3627,
      "al": 3628,
      "the": 3629,
      "ar": 3630,
      "st": 3631,
      "re": 3632,
      "der": 3633,
      "ich": 3634,
      "as": 3635,
      "ion": 3636,
      "ur": 3637,
      "el": 3638,
      "and": 3639,
      "le": 3640,
      "of": 3641,
      "ent": 3642,
      "ein": 3643,
      "to": 3644,
      "ed": 3645,
      "au": 3646,
      "und": 3647,
      "om": 3648,
      "ge": 3649,
      "be": 3650,
      "ung": 3651,
      "ing": 3652,
      "de": 3653,
      "die": 3654,
      "te": 3655,
      "ro": 3656,
      "il": 3657,
      "den": 3658,
      "ig": 3659,
      "ic": 3660,
      "ol": 3661,
      "am": 3662,
      "ir": 3663,
      "us": 3664,
      "im": 3665,
      "ter": 3666,
      "ver": 3667,
      "for": 3668,
      "ten": 3669,
      "sch": 3670,
      "se": 3671,
      "ation": 3672,
      "ab": 3673,
      "ut": 3674,
      "he": 3675,
      "op": 3676,
      "zu": 3677,
      "ra": 3678,
      "we": 3679,
      "ct": 3680,
      "ist": 3681,
      "hr": 3682,
      "em": 3683,
      "ies": 3684,
      "ul": 3685,
      "ne": 3686,
      "ber": 3687,
      "gen": 3688,
      "lich": 3689,
      "ot": 3690,
      "ve": 3691,
      "all": 3692,
      "um": 3693,
      "ür": 3694,
      "isch": 3695,
      "ier": 3696,
      "icht": 3697,
      "est": 3698,
      "das": 3699,
      "pro": 3700,
      "ke": 3701,
      "that": 3702,
      "so": 3703,
      "con": 3704,
      "ach": 3705,
      "id": 3706,
      "ess": 3707,
      "sp": 3708,
      "omm": 3709,
      "von": 3710,
      "ad": 3711,
      "auf": 3712,
      "are": 3713,
      "ce": 3714,
      "wh": 3715,
      "wir": 3716,
      "ere": 3717,
      "et": 3718,
      "In": 3719,
      "ith": 3720,
      "mit": 3721,
      "lo": 3722,
      "our": 3723,
      "für": 3724,
      "wer": 3725,
      "la": 3726,
      "kt": 3727,
      "ort": 3728,
      "if": 3729,
      "ly": 3730,
      "des": 3731,
      "with": 3732,
      "ell": 3733,
      "eine": 3734,
      "ind": 3735,
      "The": 3736,
      "urop": 3737,
      "tr": 3738,
      "pr": 3739,
      "su": 3740,
      "ha": 3741,
      "aus": 3742,
      "ou": 3743,
      "ill": 3744,
      "ag": 3745,
      "iv": 3746,
      "dies": 3747,
      "Ver": 3748,
      "dem": 3749,
      "me": 3750,
      "ck": 3751,
      "ment": 3752,
      "ay": 3753,
      "Europ": 3754,
      "ts": 3755,
      "af": 3756,
      "St": 3757,
      "ow": 3758,
      "ex": 3759,
      "ate": 3760,
      "po": 3761,
      "fr": 3762,
      "qu": 3763,
      "end": 3764,
      "iss": 3765,
      "gr": 3766,
      "ungen": 3767,
      "nen": 3768,
      "Un": 3769,
      "com": 3770,
      "co": 3771,
      "00": 3772,
      "men": 3773,
      "ischen": 3774,
      "ant": 3775,
      "ben": 3776,
      "art": 3777,
      "ze": 3778,
      "ma": 3779,
      "this": 3780,
      "not": 3781,
      "res": 3782,
      "An": 3783,
      "ers": 3784,
      "ity": 3785,
      "Sie": 3786,
      "ust": 3787,
      "sich": 3788,
      "ive": 3789,
      "nicht": 3790,
      "ien": 3791,
      "ah": 3792,
      "ap": 3793,
      "ib": 3794,
      "ta": 3795,
      "über": 3796,
      "by": 3797,
      "sh": 3798,
      "ser": 3799,
      "Re": 3800,
      "ann": 3801,
      "än": 3802,
      "werden": 3803,
      "auch": 3804,
      "sen": 3805,
      "ial": 3806,
      "port": 3807,
      "fa": 3808,
      "ik": 3809,
      "wor": 3810,
      "ges": 3811,
      "iel": 3812,
      "dass": 3813,
      "have": 3814,
      "ht": 3815,
      "igen": 3816,
      "wo": 3817,
      "pe": 3818,
      "Die": 3819,
      "vor": 3820,
      "you": 3821,
      "will": 3822,
      "mo": 3823,
      "its": 3824,
      "fe": 3825,
      "uld": 3826,
      "was": 3827,
      "ern": 3828,
      "man": 3829,
      "als": 3830,
      "du": 3831,
      "ac": 3832,
      "da": 3833,
      "tz": 3834,
      "wie": 3835,
      "hen": 3836,
      "per": 3837,
      "li": 3838,
      "no": 3839,
      "lie": 3840,
      "Be": 3841,
      "Sch": 3842,
      "ission": 3843,
      "tra": 3844,
      "which": 3845,
      "Th": 3846,
      "ste": 3847,
      "from": 3848,
      "out": 3849,
      "Europe": 3850,
      "We": 3851,
      "hal": 3852,
      "up": 3853,
      "ions": 3854,
      "ther": 3855,
      "ungs": 3856,
      "has": 3857,
      "form": 3858,
      "oll": 3859,
      "ard": 3860,
      "str": 3861,
      "can": 3862,
      "fer": 3863,
      "sind": 3864,
      "Pro": 3865,
      "age": 3866,
      "ip": 3867,
      "ommission": 3868,
      "sit": 3869,
      "schaf": 3870,
      "einer": 3871,
      "imm": 3872,
      "En": 3873,
      "ident": 3874,
      "able": 3875,
      "..": 3876,
      "one": 3877,
      "ang": 3878,
      "do": 3879,
      "ug": 3880,
      "wird": 3881,
      "inter": 3882,
      "fü": 3883,
      "fen": 3884,
      "od": 3885,
      "bei": 3886,
      "hat": 3887,
      "ine": 3888,
      "ure": 3889,
      "ön": 3890,
      "uss": 3891,
      "aben": 3892,
      "einen": 3893,
      "Er": 3894,
      "Par": 3895,
      "ische": 3896,
      "pl": 3897,
      "ft": 3898,
      "Ar": 3899,
      "iz": 3900,
      "ele": 3901,
      "fin": 3902,
      "ous": 3903,
      "br": 3904,
      "oder": 3905,
      "Au": 3906,
      "urch": 3907,
      "ise": 3908,
      "enn": 3909,
      "ire": 3910,
      "ick": 3911,
      "her": 3912,
      "bes": 3913,
      "ger": 3914,
      "unter": 3915,
      "iten": 3916,
      "ament": 3917,
      "otel": 3918,
      "ass": 3919,
      "hren": 3920,
      "200": 3921,
      "zur": 3922,
      "ige": 3923,
      "ore": 3924,
      "pol": 3925,
      "ia": 3926,
      "sie": 3927,
      "haben": 3928,
      "je": 3929,
      "Her": 3930,
      "also": 3931,
      "Mit": 3932,
      "European": 3933,
      "cl": 3934,
      "ally": 3935,
      "war": 3936,
      "Aus": 3937,
      "Pr": 3938,
      "ide": 3939,
      "part": 3940,
      "Al": 3941,
      "Fr": 3942,
      "comp": 3943,
      "ations": 3944,
      "reg": 3945,
      "uns": 3946,
      "ction": 3947,
      "ult": 3948,
      "chen": 3949,
      "Ein": 3950,
      "lichen": 3951,
      "ated": 3952,
      "ice": 3953,
      "ok": 3954,
      "ational": 3955,
      "kön": 3956,
      "very": 3957,
      "ank": 3958,
      "ät": 3959,
      "dr": 3960,
      "che": 3961,
      "og": 3962,
      "nach": 3963,
      "spe": 3964,
      "hl": 3965,
      "dern": 3966,
      "gan": 3967,
      "mö": 3968,
      "ob": 3969,
      "go": 3970,
      "sten": 3971,
      "Wir": 3972,
      "ss": 3973,
      "aten": 3974,
      "cht": 3975,
      "elt": 3976,
      "ieren": 3977,
      "ans": 3978,
      "schaft": 3979,
      "gro": 3980,
      "pt": 3981,
      "ff": 3982,
      "ight": 3983,
      "iert": 3984,
      "ite": 3985,
      "Se": 3986,
      "ish": 3987,
      "alle": 3988,
      "Ge": 3989,
      "your": 3990,
      "ear": 3991,
      "stell": 3992,
      "Das": 3993,
      "ud": 3994,
      "ble": 3995,
      "rit": 3996,
      "vel": 3997,
      "är": 3998,
      "work": 3999,
      "ast": 4000,
      "ue": 4001,
      "einem": 4002,
      "cess": 4003,
      "ange": 4004,
      "kann": 4005,
      "ord": 4006,
      "bo": 4007,
      "Union": 4008,
      "wur": 4009,
      "ates": 4010,
      "durch": 4011,
      "ander": 4012,
      "yst": 4013,
      "tet": 4014,
      "ub": 4015,
      "19": 4016,
      "comm": 4017,
      "Gr": 4018,
      "ün": 4019,
      "keit": 4020,
      "ign": 4021,
      "hin": 4022,
      "tim": 4023,
      "It": 4024,
      "Ich": 4025,
      "but": 4026,
      "cre": 4027,
      "dar": 4028,
      "weit": 4029,
      "Vor": 4030,
      "national": 4031,
      "ember": 4032,
      "fre": 4033,
      "ystem": 4034,
      "coun": 4035,
      "ame": 4036,
      "ome": 4037,
      "Ber": 4038,
      "können": 4039,
      "ical": 4040,
      "Ab": 4041,
      "ak": 4042,
      "äs": 4043,
      "there": 4044,
      "fol": 4045,
      "EU": 4046,
      "ho": 4047,
      "gt": 4048,
      "ance": 4049,
      "more": 4050,
      "now": 4051,
      "liche": 4052,
      "Mr": 4053,
      "ary": 4054,
      "pre": 4055,
      "hre": 4056,
      "igh": 4057,
      "Commission": 4058,
      "Herr": 4059,
      "ple": 4060,
      "pla": 4061,
      "ör": 4062,
      "beit": 4063,
      "mar": 4064,
      "Le": 4065,
      "ommen": 4066,
      "ain": 4067,
      "ahr": 4068,
      "land": 4069,
      "would": 4070,
      "ely": 4071,
      "ssen": 4072,
      "zum": 4073,
      "been": 4074,
      "par": 4075,
      "ile": 4076,
      "ese": 4077,
      "ition": 4078,
      "their": 4079,
      "any": 4080,
      "sho": 4081,
      "other": 4082,
      "bar": 4083,
      "ins": 4084,
      "heit": 4085,
      "uch": 4086,
      "dis": 4087,
      "cial": 4088,
      "Ent": 4089,
      "min": 4090,
      "zen": 4091,
      "av": 4092,
      "glich": 4093,
      "ents": 4094,
      "chte": 4095,
      "bet": 4096,
      "This": 4097,
      "Ges": 4098,
      "wä": 4099,
      "ong": 4100,
      "lin": 4101,
      "Europä": 4102,
      "Hotel": 4103,
      "way": 4104,
      "mer": 4105,
      "ens": 4106,
      "nur": 4107,
      "ner": 4108,
      "diese": 4109,
      "produ": 4110,
      "hand": 4111,
      "Unter": 4112,
      "De": 4113,
      "int": 4114,
      "prov": 4115,
      "gest": 4116,
      "sel": 4117,
      "act": 4118,
      "chn": 4119,
      "cr": 4120,
      "Der": 4121,
      "neh": 4122,
      "ken": 4123,
      "should": 4124,
      "ute": 4125,
      "new": 4126,
      "ase": 4127,
      "Sp": 4128,
      "reich": 4129,
      "ian": 4130,
      "ahl": 4131,
      "Pres": 4132,
      "net": 4133,
      "vie": 4134,
      "unser": 4135,
      "polit": 4136,
      "ful": 4137,
      "ück": 4138,
      "For": 4139,
      "under": 4140,
      "Kon": 4141,
      "geb": 4142,
      "sol": 4143,
      "gel": 4144,
      "cent": 4145,
      "ev": 4146,
      "noch": 4147,
      "ater": 4148,
      "who": 4149,
      "mü": 4150,
      "ution": 4151,
      "stand": 4152,
      "gram": 4153,
      "os": 4154,
      "soll": 4155,
      "äsident": 4156,
      "ierung": 4157,
      "Es": 4158,
      "hn": 4159,
      "etz": 4160,
      "dieser": 4161,
      "kon": 4162,
      "tre": 4163,
      "bere": 4164,
      "Kommission": 4165,
      "own": 4166,
      "Dies": 4167,
      "ktion": 4168,
      "teil": 4169,
      "ll": 4170,
      "must": 4171,
      "countr": 4172,
      "Co": 4173,
      "...": 4174,
      "use": 4175,
      "fl": 4176,
      "olle": 4177,
      "mehr": 4178,
      "20": 4179,
      "ces": 4180,
      "over": 4181,
      "kl": 4182,
      "ings": 4183,
      "formation": 4184,
      "off": 4185,
      "daß": 4186,
      "Inter": 4187,
      "they": 4188,
      "need": 4189,
      "immer": 4190,
      "aber": 4191,
      "year": 4192,
      "like": 4193,
      "serv": 4194,
      "schen": 4195,
      "ual": 4196,
      "ities": 4197,
      "time": 4198,
      "gem": 4199,
      "sein": 4200,
      "gre": 4201,
      "get": 4202,
      "wurde": 4203,
      "only": 4204,
      "anz": 4205,
      "fore": 4206,
      "ty": 4207,
      "President": 4208,
      "tel": 4209,
      "day": 4210,
      "utz": 4211,
      "cur": 4212,
      "sup": 4213,
      "sta": 4214,
      "Te": 4215,
      "ßen": 4216,
      "Auf": 4217,
      "cont": 4218,
      "about": 4219,
      "Um": 4220,
      "bed": 4221,
      "wick": 4222,
      "Ma": 4223,
      "Präsident": 4224,
      "ks": 4225,
      "leich": 4226,
      "ced": 4227,
      "gegen": 4228,
      "wenn": 4229,
      "glie": 4230,
      "ef": 4231,
      "Mar": 4232,
      "ack": 4233,
      "ild": 4234,
      "system": 4235,
      "alt": 4236,
      "Ze": 4237,
      "10": 4238,
      "assen": 4239,
      "oc": 4240,
      "ject": 4241,
      "pres": 4242,
      "nah": 4243,
      "kommen": 4244,
      "olog": 4245,
      "Reg": 4246,
      "bie": 4247,
      "gesch": 4248,
      "sehr": 4249,
      "fir": 4250,
      "ible": 4251,
      "stat": 4252,
      "ments": 4253,
      "some": 4254,
      "ious": 4255,
      "nis": 4256,
      "zw": 4257,
      "pos": 4258,
      ").": 4259,
      "müssen": 4260,
      "ied": 4261,
      "lament": 4262,
      "cil": 4263,
      "velop": 4264,
      "bis": 4265,
      "nehmen": 4266,
      "Fra": 4267,
      "io": 4268,
      "cons": 4269,
      "führ": 4270,
      "cy": 4271,
      "ms": 4272,
      "gu": 4273,
      "jed": 4274,
      "vers": 4275,
      "hnen": 4276,
      "best": 4277,
      "Mitglie": 4278,
      "tain": 4279,
      "bel": 4280,
      "dire": 4281,
      "erson": 4282,
      "ors": 4283,
      "ative": 4284,
      "ient": 4285,
      "king": 4286,
      "these": 4287,
      "ld": 4288,
      "Parlament": 4289,
      "leg": 4290,
      "det": 4291,
      "ket": 4292,
      "ität": 4293,
      "wen": 4294,
      "ause": 4295,
      "ütz": 4296,
      "liament": 4297,
      "onder": 4298,
      "ammen": 4299,
      "sa": 4300,
      "mat": 4301,
      "import": 4302,
      "tern": 4303,
      "such": 4304,
      "ibt": 4305,
      "ubl": 4306,
      "ular": 4307,
      "Men": 4308,
      "Member": 4309,
      "room": 4310,
      "ustr": 4311,
      "ph": 4312,
      "atz": 4313,
      "setz": 4314,
      "most": 4315,
      "dif": 4316,
      "eines": 4317,
      "report": 4318,
      "weiter": 4319,
      "diesem": 4320,
      "usammen": 4321,
      "iger": 4322,
      "develop": 4323,
      "ople": 4324,
      "stit": 4325,
      "igt": 4326,
      "my": 4327,
      "many": 4328,
      "well": 4329,
      "ider": 4330,
      "dam": 4331,
      "Ne": 4332,
      "igkeit": 4333,
      "ility": 4334,
      "ures": 4335,
      "ose": 4336,
      "erg": 4337,
      "och": 4338,
      "entr": 4339,
      "ific": 4340,
      "sub": 4341,
      "posit": 4342,
      "ihre": 4343,
      "ons": 4344,
      "mal": 4345,
      "unden": 4346,
      "ement": 4347,
      "änd": 4348,
      "Im": 4349,
      "halten": 4350,
      "kte": 4351,
      "were": 4352,
      "into": 4353,
      "fo": 4354,
      "viel": 4355,
      "sche": 4356,
      "Bes": 4357,
      "cle": 4358,
      "Europäischen": 4359,
      "low": 4360,
      "come": 4361,
      "wicht": 4362,
      "iven": 4363,
      "them": 4364,
      "ateg": 4365,
      "Parliament": 4366,
      "oper": 4367,
      "bas": 4368,
      "people": 4369,
      "vis": 4370,
      "äl": 4371,
      "hotel": 4372,
      "rel": 4373,
      "gl": 4374,
      "geben": 4375,
      "what": 4376,
      "Jahr": 4377,
      "ating": 4378,
      "dition": 4379,
      "view": 4380,
      "Or": 4381,
      "mon": 4382,
      "ihr": 4383,
      "just": 4384,
      "wel": 4385,
      "uß": 4386,
      "zeit": 4387,
      "lä": 4388,
      "les": 4389,
      "fect": 4390,
      "pf": 4391,
      "neu": 4392,
      "hel": 4393,
      "ism": 4394,
      "Mitglied": 4395,
      "ices": 4396,
      "iden": 4397,
      "Ch": 4398,
      "inv": 4399,
      "arbeit": 4400,
      "bal": 4401,
      "möchte": 4402,
      "del": 4403,
      "eing": 4404,
      "Zeit": 4405,
      "stru": 4406,
      "Me": 4407,
      "bre": 4408,
      "loc": 4409,
      "mach": 4410,
      "lung": 4411,
      "international": 4412,
      "support": 4413,
      "cause": 4414,
      "hier": 4415,
      "As": 4416,
      "than": 4417,
      "publ": 4418,
      "hol": 4419,
      "zwe": 4420,
      "isten": 4421,
      "Über": 4422,
      "pen": 4423,
      "So": 4424,
      "conom": 4425,
      "ail": 4426,
      "Tr": 4427,
      "ert": 4428,
      "States": 4429,
      "ats": 4430,
      "techn": 4431,
      "Ger": 4432,
      "xt": 4433,
      "incl": 4434,
      "order": 4435,
      "ansp": 4436,
      "first": 4437,
      "Nach": 4438,
      "),": 4439,
      "when": 4440,
      "itte": 4441,
      "his": 4442,
      "Coun": 4443,
      "elle": 4444,
      "uropä": 4445,
      "rei": 4446,
      "vom": 4447,
      "ory": 4448,
      "son": 4449,
      "countries": 4450,
      "know": 4451,
      "ru": 4452,
      "qual": 4453,
      "roug": 4454,
      "gleich": 4455,
      "read": 4456,
      "ale": 4457,
      "stellen": 4458,
      "Frau": 4459,
      "ieden": 4460,
      "dec": 4461,
      "Con": 4462,
      "US": 4463,
      "Bericht": 4464,
      "partic": 4465,
      "sicht": 4466,
      "amen": 4467,
      "ster": 4468,
      "Str": 4469,
      "program": 4470,
      "allen": 4471,
      "quest": 4472,
      "Menschen": 4473,
      "Land": 4474,
      "gibt": 4475,
      "vent": 4476,
      "ards": 4477,
      "richt": 4478,
      "essen": 4479,
      "poss": 4480,
      "bu": 4481,
      "ages": 4482,
      "oft": 4483,
      "erv": 4484,
      "polic": 4485,
      "where": 4486,
      "etzt": 4487,
      "wend": 4488,
      "ler": 4489,
      "He": 4490,
      "enz": 4491,
      "fact": 4492,
      "here": 4493,
      "Council": 4494,
      "gar": 4495,
      "europä": 4496,
      "important": 4497,
      "again": 4498,
      "gew": 4499,
      "econom": 4500,
      "ted": 4501,
      "inn": 4502,
      "make": 4503,
      "fort": 4504,
      "dieses": 4505,
      "sowie": 4506,
      "stütz": 4507,
      "änder": 4508,
      "zwischen": 4509,
      "press": 4510,
      "led": 4511,
      "ence": 4512,
      "cour": 4513,
      "agre": 4514,
      "ween": 4515,
      "ument": 4516,
      "halb": 4517,
      "Comm": 4518,
      "thing": 4519,
      "gh": 4520,
      "hör": 4521,
      "pect": 4522,
      "besonder": 4523,
      "ds": 4524,
      "bin": 4525,
      "take": 4526,
      "tschaft": 4527,
      "Pol": 4528,
      "istr": 4529,
      "ließ": 4530,
      "els": 4531,
      "between": 4532,
      "set": 4533,
      "ights": 4534,
      "main": 4535,
      "Fl": 4536,
      "möglich": 4537,
      "ware": 4538,
      "world": 4539,
      "Zu": 4540,
      "present": 4541,
      "arr": 4542,
      "ives": 4543,
      "issen": 4544,
      "propos": 4545,
      "halt": 4546,
      "Bed": 4547,
      "Entwick": 4548,
      "ci": 4549,
      "because": 4550,
      "Mitgliedsta": 4551,
      "proble": 4552,
      "see": 4553,
      "ural": 4554,
      "fra": 4555,
      "rough": 4556,
      "igung": 4557,
      "oh": 4558,
      "lar": 4559,
      "forder": 4560,
      "cept": 4561,
      "information": 4562,
      "por": 4563,
      "äch": 4564,
      "Bere": 4565,
      "ister": 4566,
      "muss": 4567,
      "gele": 4568,
      "bst": 4569,
      "bl": 4570,
      "tro": 4571,
      "Produ": 4572,
      "ict": 4573,
      "ital": 4574,
      "two": 4575,
      "Grund": 4576,
      "trag": 4577,
      "emp": 4578,
      "199": 4579,
      "nat": 4580,
      "line": 4581,
      "ßer": 4582,
      "good": 4583,
      "unsere": 4584,
      "Art": 4585,
      "tem": 4586,
      "Ihre": 4587,
      "keine": 4588,
      "made": 4589,
      "organ": 4590,
      "Min": 4591,
      "eng": 4592,
      "same": 4593,
      "Br": 4594,
      "zie": 4595,
      "zial": 4596,
      "wür": 4597,
      "Ex": 4598,
      "Ihnen": 4599,
      "aut": 4600,
      "finden": 4601,
      "right": 4602,
      "versch": 4603,
      "had": 4604,
      "zahl": 4605,
      "sc": 4606,
      "uation": 4607,
      "every": 4608,
      "akt": 4609,
      "high": 4610,
      "Fin": 4611,
      "If": 4612,
      "los": 4613,
      "med": 4614,
      "product": 4615,
      "years": 4616,
      "even": 4617,
      "ähr": 4618,
      "voll": 4619,
      "dit": 4620,
      "ellen": 4621,
      "issu": 4622,
      "wa": 4623,
      "öff": 4624,
      "real": 4625,
      "Arbeit": 4626,
      "uring": 4627,
      "through": 4628,
      "amil": 4629,
      "bus": 4630,
      "urn": 4631,
      "ße": 4632,
      "Mitgliedstaaten": 4633,
      "ink": 4634,
      "Europa": 4635,
      "ional": 4636,
      "bring": 4637,
      "num": 4638,
      "anderen": 4639,
      "direct": 4640,
      "play": 4641,
      "ko": 4642,
      "resp": 4643,
      "then": 4644,
      "being": 4645,
      "unkt": 4646,
      "Pl": 4647,
      "lang": 4648,
      "ium": 4649,
      "rat": 4650,
      "rest": 4651,
      "Mon": 4652,
      "ting": 4653,
      "jo": 4654,
      "icher": 4655,
      "lag": 4656,
      "Kr": 4657,
      "vo": 4658,
      "ischer": 4659,
      "clear": 4660,
      "those": 4661,
      "wever": 4662,
      "sicher": 4663,
      "Zusammen": 4664,
      "bess": 4665,
      "less": 4666,
      "Proble": 4667,
      "ps": 4668,
      "15": 4669,
      "letz": 4670,
      "ständ": 4671,
      "Wenn": 4672,
      "weise": 4673,
      "public": 4674,
      "air": 4675,
      "may": 4676,
      "keiten": 4677,
      "Rat": 4678,
      "iver": 4679,
      "chä": 4680,
      "person": 4681,
      "point": 4682,
      "att": 4683,
      "Ho": 4684,
      "ionen": 4685,
      "fall": 4686,
      "brauch": 4687,
      "prom": 4688,
      "Am": 4689,
      "policy": 4690,
      "schließ": 4691,
      "cer": 4692,
      "dann": 4693,
      "unity": 4694,
      "welt": 4695,
      "chten": 4696,
      "vir": 4697,
      "There": 4698,
      "isen": 4699,
      "gra": 4700,
      "spre": 4701,
      "site": 4702,
      "market": 4703,
      "ited": 4704,
      "währ": 4705,
      "find": 4706,
      "ös": 4707,
      "Haus": 4708,
      "Vorsch": 4709,
      "On": 4710,
      "äm": 4711,
      "gener": 4712,
      "Des": 4713,
      "belie": 4714,
      "Bo": 4715,
      "gemein": 4716,
      "uman": 4717,
      "zeich": 4718,
      "ath": 4719,
      "acht": 4720,
      "sure": 4721,
      "wieder": 4722,
      "Bereich": 4723,
      "place": 4724,
      "eln": 4725,
      "isation": 4726,
      "differ": 4727,
      "stehen": 4728,
      "how": 4729,
      "weil": 4730,
      "diesen": 4731,
      "nahmen": 4732,
      "fahren": 4733,
      "err": 4734,
      "after": 4735,
      "lim": 4736,
      "beste": 4737,
      "offen": 4738,
      "ys": 4739,
      "want": 4740,
      "damit": 4741,
      "lage": 4742,
      "particular": 4743,
      "mittel": 4744,
      "itik": 4745,
      "Welt": 4746,
      "aur": 4747,
      "Gro": 4748,
      "process": 4749,
      "fach": 4750,
      "wurden": 4751,
      "nung": 4752,
      "ior": 4753,
      "vern": 4754,
      "Ja": 4755,
      "used": 4756,
      "adt": 4757,
      "ough": 4758,
      "ters": 4759,
      "last": 4760,
      "Komm": 4761,
      "Wo": 4762,
      "Ihr": 4763,
      "possible": 4764,
      "innen": 4765,
      "You": 4766,
      "iness": 4767,
      "ält": 4768,
      "val": 4769,
      "Diese": 4770,
      "ree": 4771,
      "conc": 4772,
      "30": 4773,
      "aum": 4774,
      "ven": 4775,
      "say": 4776,
      "area": 4777,
      "spr": 4778,
      "let": 4779,
      "deb": 4780,
      "wohl": 4781,
      "entlich": 4782,
      "Hand": 4783,
      "ade": 4784,
      "No": 4785,
      "ace": 4786,
      "Ko": 4787,
      "gehen": 4788,
      "12": 4789,
      "rent": 4790,
      "ants": 4791,
      "rag": 4792,
      "Ro": 4793,
      "beg": 4794,
      "aller": 4795,
      "reichen": 4796,
      "sur": 4797,
      "unserer": 4798,
      "ändern": 4799,
      "18": 4800,
      "que": 4801,
      "trä": 4802,
      "Po": 4803,
      "kr": 4804,
      "einz": 4805,
      "fun": 4806,
      "To": 4807,
      "chts": 4808,
      "habe": 4809,
      "Gen": 4810,
      "sm": 4811,
      "stitution": 4812,
      "requ": 4813,
      "far": 4814,
      "Fe": 4815,
      "wort": 4816,
      "Was": 4817,
      "rif": 4818,
      "itt": 4819,
      "ix": 4820,
      "trans": 4821,
      "wert": 4822,
      "ouse": 4823,
      "000": 4824,
      "put": 4825,
      "fest": 4826,
      "lau": 4827,
      "sim": 4828,
      "economic": 4829,
      "grund": 4830,
      "Gem": 4831,
      "char": 4832,
      "Bar": 4833,
      "wirtschaft": 4834,
      "uer": 4835,
      "angen": 4836,
      "seine": 4837,
      "jedoch": 4838,
      "exper": 4839,
      "cor": 4840,
      "sk": 4841,
      "Bür": 4842,
      "old": 4843,
      "sondern": 4844,
      "elect": 4845,
      "alth": 4846,
      "ince": 4847,
      "wirk": 4848,
      "incre": 4849,
      "ply": 4850,
      "At": 4851,
      "Europäische": 4852,
      "var": 4853,
      "great": 4854,
      "fahr": 4855,
      "erst": 4856,
      "kle": 4857,
      "tegr": 4858,
      "Bet": 4859,
      "industr": 4860,
      "star": 4861,
      "fund": 4862,
      "uro": 4863,
      "hist": 4864,
      "Information": 4865,
      "concern": 4866,
      "führen": 4867,
      "50": 4868,
      "System": 4869,
      "access": 4870,
      "tens": 4871,
      "neue": 4872,
      "plic": 4873,
      "ziel": 4874,
      "human": 4875,
      "gent": 4876,
      "contin": 4877,
      "prof": 4878,
      "Sicher": 4879,
      "lobal": 4880,
      "offer": 4881,
      "prote": 4882,
      "help": 4883,
      "could": 4884,
      "hö": 4885,
      "raft": 4886,
      "heute": 4887,
      "iti": 4888,
      "Sta": 4889,
      "Ind": 4890,
      "Program": 4891,
      "lagen": 4892,
      "effect": 4893,
      "back": 4894,
      "transp": 4895,
      "ata": 4896,
      "Man": 4897,
      "number": 4898,
      "Pre": 4899,
      "Unternehmen": 4900,
      "political": 4901,
      "ker": 4902,
      "Web": 4903,
      "gestell": 4904,
      "lassen": 4905,
      "All": 4906,
      "Teil": 4907,
      "level": 4908,
      "interest": 4909,
      "does": 4910,
      "isp": 4911,
      "Än": 4912,
      "Res": 4913,
      "look": 4914,
      "ude": 4915,
      "ready": 4916,
      "kom": 4917,
      "avail": 4918,
      "appro": 4919,
      "di": 4920,
      "cap": 4921,
      "ref": 4922,
      "development": 4923,
      "pra": 4924,
      "tow": 4925,
      "within": 4926,
      "Kolle": 4927,
      "ierte": 4928,
      "itz": 4929,
      "gung": 4930,
      "satz": 4931,
      "deut": 4932,
      "ganz": 4933,
      "exam": 4934,
      "text": 4935,
      "open": 4936,
      "cord": 4937,
      "bereits": 4938,
      "Entwicklung": 4939,
      "much": 4940,
      "rights": 4941,
      "ohne": 4942,
      "sign": 4943,
      "Änder": 4944,
      "ics": 4945,
      "mich": 4946,
      "tal": 4947,
      "ability": 4948,
      "wichtig": 4949,
      "selbst": 4950,
      "free": 4951,
      "includ": 4952,
      "both": 4953,
      "ßnahmen": 4954,
      "loy": 4955,
      "ga": 4956,
      "hm": 4957,
      "country": 4958,
      "bur": 4959,
      "Richt": 4960,
      "against": 4961,
      "ihrer": 4962,
      "zug": 4963,
      "Wie": 4964,
      "therefore": 4965,
      "ved": 4966,
      "Wer": 4967,
      "itä": 4968,
      "govern": 4969,
      "down": 4970,
      "unt": 4971,
      "lex": 4972,
      "az": 4973,
      "sollte": 4974,
      "ship": 4975,
      "ustom": 4976,
      "neuen": 4977,
      "icult": 4978,
      "führt": 4979,
      "utions": 4980,
      "Jahren": 4981,
      "einfach": 4982,
      "abl": 4983,
      "Mö": 4984,
      "amp": 4985,
      "long": 4986,
      "europäischen": 4987,
      "ierten": 4988,
      "still": 4989,
      "viron": 4990,
      "Leben": 4991,
      "ator": 4992,
      "liegt": 4993,
      "group": 4994,
      "ivid": 4995,
      "hlen": 4996,
      "eigen": 4997,
      "oftware": 4998,
      "eld": 4999,
      "Daten": 5000,
      "ret": 5001,
      "priv": 5002,
      "Gemein": 5003,
      "gend": 5004,
      "gef": 5005,
      "Is": 5006,
      "agement": 5007,
      "andere": 5008,
      "zwei": 5009,
      "provid": 5010,
      "Kom": 5011,
      "finan": 5012,
      "ulation": 5013,
      "grö": 5014,
      "schn": 5015,
      "ätz": 5016,
      "different": 5017,
      "une": 5018,
      "Fre": 5019,
      "Part": 5020,
      "operation": 5021,
      "key": 5022,
      "ows": 5023,
      "quality": 5024,
      "position": 5025,
      "denen": 5026,
      "fil": 5027,
      "Frage": 5028,
      "without": 5029,
      "ask": 5030,
      "ux": 5031,
      "consider": 5032,
      "fur": 5033,
      "bietet": 5034,
      "struct": 5035,
      "inst": 5036,
      "ausge": 5037,
      "spec": 5038,
      "kehr": 5039,
      "woll": 5040,
      "seit": 5041,
      "inner": 5042,
      "hop": 5043,
      "immt": 5044,
      "vironment": 5045,
      "sollten": 5046,
      "sehen": 5047,
      "service": 5048,
      "komm": 5049,
      "ren": 5050,
      "meas": 5051,
      "ittee": 5052,
      "kun": 5053,
      "lif": 5054,
      "verschieden": 5055,
      "machen": 5056,
      "Chin": 5057,
      "services": 5058,
      "fast": 5059,
      "social": 5060,
      "ep": 5061,
      "Da": 5062,
      "hän": 5063,
      "ways": 5064,
      "11": 5065,
      "Person": 5066,
      "available": 5067,
      "Best": 5068,
      "Bürger": 5069,
      "Wor": 5070,
      "power": 5071,
      "unterstütz": 5072,
      "zeug": 5073,
      "ER": 5074,
      "aff": 5075,
      "uf": 5076,
      "rooms": 5077,
      "change": 5078,
      "arbe": 5079,
      "design": 5080,
      "ded": 5081,
      "schafts": 5082,
      "law": 5083,
      "nahme": 5084,
      "licher": 5085,
      "ists": 5086,
      "plement": 5087,
      "bil": 5088,
      "atur": 5089,
      "fut": 5090,
      "too": 5091,
      "cit": 5092,
      "Stand": 5093,
      "pass": 5094,
      "ize": 5095,
      "rol": 5096,
      "ision": 5097,
      "met": 5098,
      "large": 5099,
      "fern": 5100,
      "business": 5101,
      "Internet": 5102,
      "ness": 5103,
      "geht": 5104,
      "require": 5105,
      "car": 5106,
      "wes": 5107,
      "alten": 5108,
      "member": 5109,
      "Mittel": 5110,
      "nor": 5111,
      "findet": 5112,
      "ised": 5113,
      "eben": 5114,
      "sprechen": 5115,
      "statt": 5116,
      "ime": 5117,
      "gut": 5118,
      "custom": 5119,
      "viele": 5120,
      "mir": 5121,
      "inc": 5122,
      "course": 5123,
      "ichte": 5124,
      "luss": 5125,
      "amer": 5126,
      "ibility": 5127,
      "ience": 5128,
      "bt": 5129,
      "current": 5130,
      "dazu": 5131,
      "uten": 5132,
      "ispiel": 5133,
      "before": 5134,
      "Dem": 5135,
      "besch": 5136,
      "ffic": 5137,
      "besondere": 5138,
      "thor": 5139,
      "ves": 5140,
      "kes": 5141,
      "fä": 5142,
      "bau": 5143,
      "reas": 5144,
      "enter": 5145,
      "kten": 5146,
      "already": 5147,
      "future": 5148,
      "clo": 5149,
      "believe": 5150,
      "follow": 5151,
      "project": 5152,
      "Möglich": 5153,
      "row": 5154,
      "kur": 5155,
      "But": 5156,
      "iß": 5157,
      "That": 5158,
      "ond": 5159,
      "Med": 5160,
      "anges": 5161,
      "special": 5162,
      "arch": 5163,
      "stellung": 5164,
      "ienst": 5165,
      "seiner": 5166,
      "rap": 5167,
      "red": 5168,
      "besser": 5169,
      "today": 5170,
      "ktur": 5171,
      "strateg": 5172,
      "Arbe": 5173,
      "Ziel": 5174,
      "global": 5175,
      "uck": 5176,
      "alen": 5177,
      "ont": 5178,
      "agen": 5179,
      "nam": 5180,
      "denn": 5181,
      "jetzt": 5182,
      "ving": 5183,
      "cing": 5184,
      "gestellt": 5185,
      "Com": 5186,
      "könn": 5187,
      "products": 5188,
      "16": 5189,
      "entwick": 5190,
      "2009": 5191,
      "recht": 5192,
      "respons": 5193,
      "case": 5194,
      "darauf": 5195,
      "think": 5196,
      "EN": 5197,
      "ged": 5198,
      "Tra": 5199,
      "jor": 5200,
      "Af": 5201,
      "har": 5202,
      "mb": 5203,
      "employ": 5204,
      "disc": 5205,
      "technolog": 5206,
      "ward": 5207,
      "schon": 5208,
      "opt": 5209,
      "ically": 5210,
      "aher": 5211,
      "environment": 5212,
      "ante": 5213,
      "ahre": 5214,
      "suc": 5215,
      "invest": 5216,
      "zentr": 5217,
      "betr": 5218,
      "ahmen": 5219,
      "ilt": 5220,
      "start": 5221,
      "cannot": 5222,
      "redu": 5223,
      "ines": 5224,
      "data": 5225,
      "Serv": 5226,
      "Lage": 5227,
      "city": 5228,
      "ismus": 5229,
      "mor": 5230,
      "Informationen": 5231,
      "cond": 5232,
      "klär": 5233,
      "14": 5234,
      "bieten": 5235,
      "ica": 5236,
      "omen": 5237,
      "folg": 5238,
      "Energ": 5239,
      "offers": 5240,
      "Rahmen": 5241,
      "ritt": 5242,
      "Kin": 5243,
      "integr": 5244,
      "nisse": 5245,
      "Bl": 5246,
      "Qu": 5247,
      "regard": 5248,
      "falls": 5249,
      "zus": 5250,
      "öl": 5251,
      "web": 5252,
      "Zimmer": 5253,
      "individ": 5254,
      "curity": 5255,
      "sor": 5256,
      "ished": 5257,
      "mus": 5258,
      "Finanz": 5259,
      "Amer": 5260,
      "Maßnahmen": 5261,
      "isk": 5262,
      "Fall": 5263,
      "ately": 5264,
      "na": 5265,
      "certain": 5266,
      "llen": 5267,
      "uni": 5268,
      "Stadt": 5269,
      "aterial": 5270,
      "And": 5271,
      "question": 5272,
      "saf": 5273,
      "anken": 5274,
      "ues": 5275,
      "ctor": 5276,
      "einige": 5277,
      "isl": 5278,
      "lossen": 5279,
      "small": 5280,
      "olution": 5281,
      "zusammen": 5282,
      "reat": 5283,
      "cell": 5284,
      "dafür": 5285,
      "activ": 5286,
      "iving": 5287,
      "imin": 5288,
      "sam": 5289,
      "Ste": 5290,
      "exp": 5291,
      "ements": 5292,
      "bereit": 5293,
      "famil": 5294,
      "wissen": 5295,
      "situation": 5296,
      "Ad": 5297,
      "gesam": 5298,
      "Em": 5299,
      "col": 5300,
      "meet": 5301,
      "verb": 5302,
      "Commissioner": 5303,
      "La": 5304,
      "Russ": 5305,
      "Spe": 5306,
      "enth": 5307,
      "fully": 5308,
      "17": 5309,
      "Bei": 5310,
      "fair": 5311,
      "asse": 5312,
      "iter": 5313,
      "energ": 5314,
      "legen": 5315,
      "adv": 5316,
      "okrat": 5317,
      "cas": 5318,
      "nun": 5319,
      "issue": 5320,
      "Pal": 5321,
      "spra": 5322,
      "Mo": 5323,
      "nov": 5324,
      "necess": 5325,
      "rie": 5326,
      "during": 5327,
      "13": 5328,
      "Herrn": 5329,
      "legal": 5330,
      "respect": 5331,
      "]]": 5332,
      "ually": 5333,
      "cho": 5334,
      "zurück": 5335,
      "Kommiss": 5336,
      "pay": 5337,
      "neg": 5338,
      "plan": 5339,
      "Euro": 5340,
      "ound": 5341,
      "IN": 5342,
      "ca": 5343,
      "waren": 5344,
      "liegen": 5345,
      "gress": 5346,
      "aupt": 5347,
      "iff": 5348,
      "equ": 5349,
      "Jahre": 5350,
      "citiz": 5351,
      "[[": 5352,
      "top": 5353,
      "implement": 5354,
      "modern": 5355,
      "äß": 5356,
      "Aussch": 5357,
      "cost": 5358,
      "auto": 5359,
      "kunft": 5360,
      "ihren": 5361,
      "Nor": 5362,
      "said": 5363,
      "Für": 5364,
      "begr": 5365,
      "problem": 5366,
      "ron": 5367,
      "debate": 5368,
      "financial": 5369,
      "ett": 5370,
      "ily": 5371,
      "ahn": 5372,
      "allem": 5373,
      "steht": 5374,
      "eas": 5375,
      "len": 5376,
      "setzung": 5377,
      "achie": 5378,
      "example": 5379,
      "heiten": 5380,
      "means": 5381,
      "cken": 5382,
      "stay": 5383,
      "meine": 5384,
      "leist": 5385,
      "wach": 5386,
      "bs": 5387,
      "Our": 5388,
      "stellt": 5389,
      "major": 5390,
      "Eine": 5391,
      "applic": 5392,
      "Kommissar": 5393,
      "wal": 5394,
      "worden": 5395,
      "nie": 5396,
      "proposal": 5397,
      "üh": 5398,
      "count": 5399,
      "wollen": 5400,
      "verfü": 5401,
      "build": 5402,
      "folgen": 5403,
      "However": 5404,
      "inen": 5405,
      "Verein": 5406,
      "illion": 5407,
      "With": 5408,
      "including": 5409,
      "since": 5410,
      "hig": 5411,
      "amend": 5412,
      "side": 5413,
      "dep": 5414,
      "Ur": 5415,
      "utes": 5416,
      "Su": 5417,
      "iend": 5418,
      "udget": 5419,
      "heits": 5420,
      "unseren": 5421,
      "Arbeits": 5422,
      "Rechts": 5423,
      "würde": 5424,
      "fte": 5425,
      "iele": 5426,
      "grow": 5427,
      "cult": 5428,
      "road": 5429,
      "Politik": 5430,
      "25": 5431,
      "ized": 5432,
      "call": 5433,
      "based": 5434,
      "sagen": 5435,
      "AN": 5436,
      "punkt": 5437,
      "result": 5438,
      "hap": 5439,
      "each": 5440,
      "abil": 5441,
      "antwort": 5442,
      "taken": 5443,
      "action": 5444,
      "24": 5445,
      "kün": 5446,
      "ying": 5447,
      "spiel": 5448,
      "ationen": 5449,
      "found": 5450,
      "compet": 5451,
      "oren": 5452,
      "ktionen": 5453,
      "allow": 5454,
      "accept": 5455,
      "bewer": 5456,
      "page": 5457,
      "Ant": 5458,
      "stre": 5459,
      "Lin": 5460,
      "Fir": 5461,
      "immung": 5462,
      "colle": 5463,
      "author": 5464,
      "tour": 5465,
      "bringen": 5466,
      "hof": 5467,
      "schein": 5468,
      "aurant": 5469,
      "während": 5470,
      "hil": 5471,
      "etwas": 5472,
      "bede": 5473,
      "Proje": 5474,
      "isierung": 5475,
      "pa": 5476,
      "Und": 5477,
      "gehör": 5478,
      "conta": 5479,
      "Ser": 5480,
      "New": 5481,
      "vi": 5482,
      "three": 5483,
      "Länder": 5484,
      "Lös": 5485,
      "control": 5486,
      "histor": 5487,
      "Techn": 5488,
      "hält": 5489,
      "next": 5490,
      "success": 5491,
      "stär": 5492,
      "Deut": 5493,
      "tract": 5494,
      "ichter": 5495,
      "rece": 5496,
      "give": 5497,
      "erhalten": 5498,
      "common": 5499,
      "tun": 5500,
      "Zwe": 5501,
      "doch": 5502,
      "Geschä": 5503,
      "Parlaments": 5504,
      "pat": 5505,
      "ential": 5506,
      "trib": 5507,
      "company": 5508,
      "Recht": 5509,
      "Committee": 5510,
      "AT": 5511,
      "areas": 5512,
      "object": 5513,
      "few": 5514,
      "ensure": 5515,
      "vot": 5516,
      "IT": 5517,
      "Vorschlag": 5518,
      "2010": 5519,
      "ersten": 5520,
      "thank": 5521,
      "sozial": 5522,
      "Rest": 5523,
      "ird": 5524,
      "Bild": 5525,
      "ES": 5526,
      "Mill": 5527,
      "zept": 5528,
      "IS": 5529,
      "bank": 5530,
      "ests": 5531,
      "hä": 5532,
      "cover": 5533,
      "energy": 5534,
      "specific": 5535,
      "ordin": 5536,
      "book": 5537,
      "ased": 5538,
      "ining": 5539,
      "ürlich": 5540,
      "arbeiten": 5541,
      "pop": 5542,
      "discuss": 5543,
      "sy": 5544,
      "gangen": 5545,
      "schrif": 5546,
      "measures": 5547,
      "Durch": 5548,
      "fts": 5549,
      "agreement": 5550,
      "further": 5551,
      "while": 5552,
      "scheid": 5553,
      "EC": 5554,
      "War": 5555,
      "ordnung": 5556,
      "Unterstütz": 5557,
      "provide": 5558,
      "kauf": 5559,
      "Spiel": 5560,
      "setzen": 5561,
      "iet": 5562,
      "China": 5563,
      "Qual": 5564,
      "ja": 5565,
      "life": 5566,
      "necessary": 5567,
      "gang": 5568,
      "addition": 5569,
      "linie": 5570,
      "using": 5571,
      "Markt": 5572,
      "ext": 5573,
      "citizens": 5574,
      "UN": 5575,
      "sing": 5576,
      "earch": 5577,
      "establ": 5578,
      "igin": 5579,
      "schaften": 5580,
      "einmal": 5581,
      "Ital": 5582,
      "Verfü": 5583,
      "mil": 5584,
      "ditions": 5585,
      "log": 5586,
      "load": 5587,
      "insbesondere": 5588,
      "außer": 5589,
      "dig": 5590,
      "atic": 5591,
      "pack": 5592,
      "dra": 5593,
      "ning": 5594,
      "Änderungs": 5595,
      "agt": 5596,
      "lead": 5597,
      "utzen": 5598,
      "Mein": 5599,
      "glichen": 5600,
      "umf": 5601,
      "list": 5602,
      "commun": 5603,
      "whe": 5604,
      "beim": 5605,
      "2008": 5606,
      "verwen": 5607,
      "leben": 5608,
      "größ": 5609,
      "ache": 5610,
      "vention": 5611,
      "alled": 5612,
      "cher": 5613,
      "letzten": 5614,
      "ichten": 5615,
      "Form": 5616,
      "bit": 5617,
      "fiel": 5618,
      "lt": 5619,
      "gesetzt": 5620,
      "did": 5621,
      "security": 5622,
      "problems": 5623,
      "Dar": 5624,
      "opport": 5625,
      "vote": 5626,
      "shall": 5627,
      "km": 5628,
      "Mad": 5629,
      "incip": 5630,
      "Unterstützung": 5631,
      "Bel": 5632,
      "Sit": 5633,
      "ules": 5634,
      "wish": 5635,
      "Tag": 5636,
      "100": 5637,
      "Gesch": 5638,
      "ktiv": 5639,
      "Kunden": 5640,
      "opp": 5641,
      "half": 5642,
      "Fol": 5643,
      "genommen": 5644,
      "budget": 5645,
      "defin": 5646,
      "inform": 5647,
      "ane": 5648,
      "legisl": 5649,
      "drei": 5650,
      "Group": 5651,
      "ina": 5652,
      "pract": 5653,
      "hope": 5654,
      "health": 5655,
      "given": 5656,
      "lungs": 5657,
      "esse": 5658,
      "cially": 5659,
      "zess": 5660,
      "located": 5661,
      "tradition": 5662,
      "Zusammenarbeit": 5663,
      "dress": 5664,
      "zo": 5665,
      "why": 5666,
      "Ländern": 5667,
      "Flug": 5668,
      "porte": 5669,
      "however": 5670,
      "leicht": 5671,
      "Gu": 5672,
      "walt": 5673,
      "ises": 5674,
      "Mus": 5675,
      "jen": 5676,
      "systems": 5677,
      "Mal": 5678,
      "princip": 5679,
      "Dienst": 5680,
      "rele": 5681,
      "Problem": 5682,
      "Umwelt": 5683,
      "bat": 5684,
      "eut": 5685,
      "sequ": 5686,
      "region": 5687,
      "Stra": 5688,
      "äum": 5689,
      "invol": 5690,
      "water": 5691,
      "appe": 5692,
      "Ob": 5693,
      "self": 5694,
      "spl": 5695,
      "sour": 5696,
      "Ben": 5697,
      "Sicherheit": 5698,
      "conne": 5699,
      "besteht": 5700,
      "uc": 5701,
      "ross": 5702,
      "programm": 5703,
      "entlichen": 5704,
      "ellschaft": 5705,
      "öt": 5706,
      "iety": 5707,
      "igten": 5708,
      "lungen": 5709,
      "sum": 5710,
      "gether": 5711,
      "anal": 5712,
      "refer": 5713,
      "Organ": 5714,
      "zü": 5715,
      "Bus": 5716,
      "joy": 5717,
      "CO": 5718,
      "Namen": 5719,
      "asch": 5720,
      "Gar": 5721,
      "Red": 5722,
      "full": 5723,
      "markt": 5724,
      "ively": 5725,
      "They": 5726,
      "ding": 5727,
      "views": 5728,
      "ising": 5729,
      "always": 5730,
      "ified": 5731,
      "stim": 5732,
      "cooperation": 5733,
      "transport": 5734,
      "ton": 5735,
      "stra": 5736,
      "compan": 5737,
      "pur": 5738,
      "needs": 5739,
      "friend": 5740,
      "mot": 5741,
      "Hin": 5742,
      "care": 5743,
      "ildr": 5744,
      "Sol": 5745,
      "Vol": 5746,
      "ww": 5747,
      "Rom": 5748,
      "protection": 5749,
      "führung": 5750,
      "glau": 5751,
      "licht": 5752,
      "Fragen": 5753,
      "eig": 5754,
      "Ap": 5755,
      "deren": 5756,
      "örder": 5757,
      "strument": 5758,
      "reach": 5759,
      "streng": 5760,
      "itäten": 5761,
      "working": 5762,
      "bekann": 5763,
      "seinen": 5764,
      "ierungs": 5765,
      "Regierung": 5766,
      "comple": 5767,
      "Auto": 5768,
      "Ir": 5769,
      "Kar": 5770,
      "uge": 5771,
      "gaben": 5772,
      "bereich": 5773,
      "uter": 5774,
      "wär": 5775,
      "elf": 5776,
      "ader": 5777,
      "House": 5778,
      "stud": 5779,
      "Beit": 5780,
      "ildren": 5781,
      "Hil": 5782,
      "better": 5783,
      "state": 5784,
      "mult": 5785,
      "centr": 5786,
      "tragen": 5787,
      "government": 5788,
      "Seite": 5789,
      "kosten": 5790,
      "production": 5791,
      "Sw": 5792,
      "visit": 5793,
      "break": 5794,
      "wendung": 5795,
      "diff": 5796,
      "welche": 5797,
      "wäre": 5798,
      "handelt": 5799,
      "nal": 5800,
      "dabei": 5801,
      "hmen": 5802,
      "United": 5803,
      "geführt": 5804,
      "II": 5805,
      "Not": 5806,
      "häng": 5807,
      "ieg": 5808,
      "around": 5809,
      "dom": 5810,
      "genau": 5811,
      "ätze": 5812,
      "zieh": 5813,
      "USA": 5814,
      "Kollegen": 5815,
      "What": 5816,
      "bind": 5817,
      "Energie": 5818,
      "erk": 5819,
      "cks": 5820,
      "ches": 5821,
      "Port": 5822,
      "AR": 5823,
      "ek": 5824,
      "rän": 5825,
      "non": 5826,
      "rechte": 5827,
      "hang": 5828,
      "consum": 5829,
      "Cl": 5830,
      "2007": 5831,
      "initi": 5832,
      "exist": 5833,
      "Besch": 5834,
      "hy": 5835,
      "crit": 5836,
      "tes": 5837,
      "zeigt": 5838,
      "iste": 5839,
      "mitt": 5840,
      "ury": 5841,
      "ivil": 5842,
      "Famil": 5843,
      "second": 5844,
      "Service": 5845,
      "Vertrag": 5846,
      "klar": 5847,
      "cut": 5848,
      "ialog": 5849,
      "große": 5850,
      "him": 5851,
      "together": 5852,
      "40": 5853,
      "hoto": 5854,
      "term": 5855,
      "großen": 5856,
      "prü": 5857,
      "spol": 5858,
      "Community": 5859,
      "When": 5860,
      "muß": 5861,
      "German": 5862,
      "making": 5863,
      "Programm": 5864,
      "unde": 5865,
      "Hier": 5866,
      "gabe": 5867,
      "sever": 5868,
      "Kinder": 5869,
      "Bedeut": 5870,
      "dist": 5871,
      "oth": 5872,
      "Verfügung": 5873,
      "Gener": 5874,
      "rad": 5875,
      "blick": 5876,
      "recent": 5877,
      "programme": 5878,
      "lad": 5879,
      "represent": 5880,
      "centre": 5881,
      "ikan": 5882,
      "near": 5883,
      "burg": 5884,
      "schw": 5885,
      "anc": 5886,
      "deal": 5887,
      "short": 5888,
      "ash": 5889,
      "date": 5890,
      "Kl": 5891,
      "Air": 5892,
      "porteur": 5893,
      "profess": 5894,
      "ingungen": 5895,
      "Regel": 5896,
      "cted": 5897,
      "uft": 5898,
      "gelegen": 5899,
      "Ergeb": 5900,
      "Sk": 5901,
      "2000": 5902,
      "Entscheid": 5903,
      "Eben": 5904,
      "management": 5905,
      "These": 5906,
      "ichterstat": 5907,
      "politischen": 5908,
      "Chr": 5909,
      "Bedeutung": 5910,
      "wirklich": 5911,
      "International": 5912,
      "pers": 5913,
      "Aber": 5914,
      "become": 5915,
      "AS": 5916,
      "deta": 5917,
      "druck": 5918,
      "kets": 5919,
      "jeder": 5920,
      "carr": 5921,
      "going": 5922,
      "treten": 5923,
      "terms": 5924,
      "clus": 5925,
      "Tur": 5926,
      "trade": 5927,
      "Mrs": 5928,
      "tax": 5929,
      "iod": 5930,
      "chäft": 5931,
      "extre": 5932,
      "lle": 5933,
      "whether": 5934,
      "San": 5935,
      "town": 5936,
      "proper": 5937,
      "Auch": 5938,
      "account": 5939,
      "Ele": 5940,
      "ped": 5941,
      "writ": 5942,
      "Möglichkeit": 5943,
      "beach": 5944,
      "local": 5945,
      "another": 5946,
      "enten": 5947,
      "Fraktion": 5948,
      "Lebens": 5949,
      "uments": 5950,
      "particularly": 5951,
      "assung": 5952,
      "Fun": 5953,
      "round": 5954,
      "material": 5955,
      "difficult": 5956,
      "kommt": 5957,
      "children": 5958,
      "basis": 5959,
      "test": 5960,
      "subject": 5961,
      "Per": 5962,
      "ention": 5963,
      "bild": 5964,
      "role": 5965,
      "alles": 5966,
      "lack": 5967,
      "ende": 5968,
      "ums": 5969,
      "rapporteur": 5970,
      "Schutz": 5971,
      "personal": 5972,
      "Als": 5973,
      "Zug": 5974,
      "wand": 5975,
      "reason": 5976,
      "xim": 5977,
      "research": 5978,
      "Staaten": 5979,
      "Haupt": 5980,
      "Beispiel": 5981,
      "entfern": 5982,
      "ners": 5983,
      "Lie": 5984,
      "vious": 5985,
      "Fo": 5986,
      "issues": 5987,
      "60": 5988,
      "ivers": 5989,
      "Zahl": 5990,
      "näch": 5991,
      "light": 5992,
      "fig": 5993,
      "typ": 5994,
      "mut": 5995,
      "notwend": 5996,
      "depend": 5997,
      "ief": 5998,
      "träge": 5999,
      "iate": 6000,
      "express": 6001,
      "whole": 6002,
      "bestimm": 6003,
      "speak": 6004,
      "fert": 6005,
      "amm": 6006,
      "schied": 6007,
      "contrib": 6008,
      "yo": 6009,
      "Thema": 6010,
      "reco": 6011,
      "bon": 6012,
      "EUR": 6013,
      "hervor": 6014,
      "iges": 6015,
      "davon": 6016,
      "conditions": 6017,
      "equip": 6018,
      "org": 6019,
      "lay": 6020,
      "schnell": 6021,
      "show": 6022,
      "Gä": 6023,
      "facil": 6024,
      "ultur": 6025,
      "sto": 6026,
      "wegen": 6027,
      "head": 6028,
      "\".": 6029,
      "ints": 6030,
      "origin": 6031,
      "ars": 6032,
      "lichkeit": 6033,
      "schließlich": 6034,
      "kein": 6035,
      "address": 6036,
      "-,": 6037,
      "ocr": 6038,
      "halts": 6039,
      "daher": 6040,
      "Zentr": 6041,
      "word": 6042,
      "suchen": 6043,
      "ground": 6044,
      "cal": 6045,
      "post": 6046,
      "weisen": 6047,
      "darüber": 6048,
      "weg": 6049,
      "close": 6050,
      "Strateg": 6051,
      "ölker": 6052,
      "instit": 6053,
      "espe": 6054,
      "Viel": 6055,
      "coming": 6056,
      "lauf": 6057,
      "ategor": 6058,
      "Wahl": 6059,
      "feat": 6060,
      "eigenen": 6061,
      "wide": 6062,
      "ils": 6063,
      "experience": 6064,
      "erforder": 6065,
      "Wett": 6066,
      "Probleme": 6067,
      "gegenüber": 6068,
      "sector": 6069,
      "Weg": 6070,
      "Fahr": 6071,
      "Berichterstat": 6072,
      "ody": 6073,
      "arante": 6074,
      "Fort": 6075,
      "sport": 6076,
      "cording": 6077,
      "befindet": 6078,
      "ikel": 6079,
      "auer": 6080,
      "Frauen": 6081,
      "Seiten": 6082,
      "aim": 6083,
      "Ihrer": 6084,
      "enzen": 6085,
      "ctions": 6086,
      "80": 6087,
      "benef": 6088,
      "month": 6089,
      "schutz": 6090,
      "companies": 6091,
      "fon": 6092,
      "weitere": 6093,
      "ika": 6094,
      "Tour": 6095,
      "decision": 6096,
      "industry": 6097,
      "ipt": 6098,
      "Vers": 6099,
      "Industr": 6100,
      "vour": 6101,
      "called": 6102,
      "tschafts": 6103,
      "location": 6104,
      "various": 6105,
      "big": 6106,
      "face": 6107,
      "comes": 6108,
      "flo": 6109,
      "Weise": 6110,
      "frei": 6111,
      "staff": 6112,
      "commit": 6113,
      "doc": 6114,
      "sowohl": 6115,
      "reform": 6116,
      "meiner": 6117,
      "erreichen": 6118,
      "though": 6119,
      "women": 6120,
      "selves": 6121,
      "Ende": 6122,
      "wind": 6123,
      "Alle": 6124,
      "ots": 6125,
      "distr": 6126,
      "Produkt": 6127,
      "cel": 6128,
      "chan": 6129,
      "she": 6130,
      "oney": 6131,
      "Deutsch": 6132,
      "isches": 6133,
      "really": 6134,
      "matter": 6135,
      "ziehen": 6136,
      "\",": 6137,
      "Software": 6138,
      "DE": 6139,
      "geord": 6140,
      "ente": 6141,
      "könnte": 6142,
      "gegeben": 6143,
      "natürlich": 6144,
      "ands": 6145,
      "iday": 6146,
      "guarante": 6147,
      "food": 6148,
      "käm": 6149,
      "äd": 6150,
      "Zukunft": 6151,
      "greif": 6152,
      "hatte": 6153,
      "dings": 6154,
      "innov": 6155,
      "iar": 6156,
      "comfort": 6157,
      "ino": 6158,
      "racht": 6159,
      "igr": 6160,
      "especially": 6161,
      "cellent": 6162,
      "ban": 6163,
      "ingen": 6164,
      "gere": 6165,
      "hard": 6166,
      "besonders": 6167,
      "23": 6168,
      "prior": 6169,
      "user": 6170,
      "ehen": 6171,
      "name": 6172,
      "ably": 6173,
      "hoch": 6174,
      "def": 6175,
      "üss": 6176,
      "politik": 6177,
      "Sy": 6178,
      "Grup": 6179,
      "Mehr": 6180,
      "automat": 6181,
      "done": 6182,
      "ctive": 6183,
      "lab": 6184,
      "vest": 6185,
      "private": 6186,
      "install": 6187,
      "third": 6188,
      "unterstützen": 6189,
      "ktor": 6190,
      "Forsch": 6191,
      "entfernt": 6192,
      "''": 6193,
      "dou": 6194,
      "gn": 6195,
      "eleg": 6196,
      "create": 6197,
      "ihnen": 6198,
      "neten": 6199,
      "IC": 6200,
      "El": 6201,
      "ry": 6202,
      "kre": 6203,
      "improv": 6204,
      "verschiedenen": 6205,
      "period": 6206,
      "Den": 6207,
      "Ausschuss": 6208,
      "ov": 6209,
      "lands": 6210,
      "2006": 6211,
      "run": 6212,
      "turn": 6213,
      "geschlossen": 6214,
      "Fest": 6215,
      "enjoy": 6216,
      "ences": 6217,
      "Comp": 6218,
      "pose": 6219,
      "orn": 6220,
      "home": 6221,
      "ization": 6222,
      "vielen": 6223,
      "AL": 6224,
      "soc": 6225,
      "TV": 6226,
      "dort": 6227,
      "Minister": 6228,
      "abhäng": 6229,
      "Situation": 6230,
      "innerhalb": 6231,
      "kind": 6232,
      "Car": 6233,
      "zip": 6234,
      "Afr": 6235,
      "ides": 6236,
      "Richtlinie": 6237,
      "ennt": 6238,
      "scheiden": 6239,
      "Germany": 6240,
      "Währ": 6241,
      "proced": 6242,
      "ival": 6243,
      "house": 6244,
      "gentle": 6245,
      "langu": 6246,
      "negot": 6247,
      "request": 6248,
      "Kre": 6249,
      "ckt": 6250,
      "job": 6251,
      "genann": 6252,
      "communic": 6253,
      "bi": 6254,
      "Pe": 6255,
      "ived": 6256,
      "Schw": 6257,
      "Wind": 6258,
      "Wettbewer": 6259,
      "isions": 6260,
      "favour": 6261,
      "Do": 6262,
      "ety": 6263,
      "ichtet": 6264,
      "Geschäfts": 6265,
      "ragen": 6266,
      "regul": 6267,
      "approach": 6268,
      "direkt": 6269,
      "aid": 6270,
      "million": 6271,
      "event": 6272,
      "Rolle": 6273,
      "oment": 6274,
      "Treat": 6275,
      "ministr": 6276,
      "ither": 6277,
      "class": 6278,
      "Grün": 6279,
      "möchten": 6280,
      "TO": 6281,
      "single": 6282,
      "stimmung": 6283,
      "Go": 6284,
      "something": 6285,
      "away": 6286,
      "Mod": 6287,
      "among": 6288,
      "fficient": 6289,
      "ours": 6290,
      "ols": 6291,
      "Dire": 6292,
      "cke": 6293,
      "ances": 6294,
      "software": 6295,
      "äuß": 6296,
      "ets": 6297,
      "several": 6298,
      "understand": 6299,
      "treat": 6300,
      "Ihren": 6301,
      "rodu": 6302,
      "range": 6303,
      "general": 6304,
      "enden": 6305,
      "Kü": 6306,
      "version": 6307,
      "Wes": 6308,
      "ittle": 6309,
      "Park": 6310,
      "itself": 6311,
      "internationalen": 6312,
      "amework": 6313,
      "spolitik": 6314,
      "Pat": 6315,
      "samen": 6316,
      "zwar": 6317,
      "excellent": 6318,
      "ago": 6319,
      "Li": 6320,
      "cris": 6321,
      "Fil": 6322,
      "known": 6323,
      "Hotels": 6324,
      "continue": 6325,
      "hlt": 6326,
      "vol": 6327,
      "often": 6328,
      "resolution": 6329,
      "ishing": 6330,
      "ühr": 6331,
      "ifiz": 6332,
      "Transp": 6333,
      "draw": 6334,
      "finanz": 6335,
      "dür": 6336,
      "urs": 6337,
      "itor": 6338,
      "Nutz": 6339,
      "Technolog": 6340,
      "My": 6341,
      "introdu": 6342,
      "werk": 6343,
      "resour": 6344,
      "tar": 6345,
      "sprache": 6346,
      "Wasser": 6347,
      "Verbrauch": 6348,
      "World": 6349,
      "erste": 6350,
      "app": 6351,
      "folgt": 6352,
      "ände": 6353,
      "mark": 6354,
      "employment": 6355,
      "Uhr": 6356,
      "days": 6357,
      "imp": 6358,
      "organis": 6359,
      "vil": 6360,
      "ican": 6361,
      "ativen": 6362,
      "forward": 6363,
      "expect": 6364,
      "mäß": 6365,
      "peace": 6366,
      "asing": 6367,
      "olf": 6368,
      "table": 6369,
      "Dr": 6370,
      "family": 6371,
      "gentlemen": 6372,
      "progress": 6373,
      "RO": 6374,
      "AG": 6375,
      "hunder": 6376,
      "Wirtschaft": 6377,
      "verl": 6378,
      "taking": 6379,
      "least": 6380,
      "rael": 6381,
      "Rück": 6382,
      "optim": 6383,
      "konn": 6384,
      "Partner": 6385,
      "blo": 6386,
      "mag": 6387,
      "etc": 6388,
      "apart": 6389,
      "regional": 6390,
      "Frank": 6391,
      "opin": 6392,
      "contact": 6393,
      "abo": 6394,
      "Artikel": 6395,
      "ones": 6396,
      "AC": 6397,
      "Jan": 6398,
      "ugen": 6399,
      "online": 6400,
      "Frei": 6401,
      "inde": 6402,
      "serious": 6403,
      "adop": 6404,
      "price": 6405,
      "Berlin": 6406,
      "aden": 6407,
      "ians": 6408,
      "hinaus": 6409,
      "ksam": 6410,
      "crisis": 6411,
      "europäische": 6412,
      "institution": 6413,
      "Wirtschafts": 6414,
      "Natur": 6415,
      "zeitig": 6416,
      "meth": 6417,
      "ults": 6418,
      "negoti": 6419,
      "following": 6420,
      "money": 6421,
      "individual": 6422,
      "Spra": 6423,
      "ünst": 6424,
      "Stud": 6425,
      "Ac": 6426,
      "atives": 6427,
      "iere": 6428,
      "frage": 6429,
      "nehmer": 6430,
      "ling": 6431,
      "particip": 6432,
      "welcome": 6433,
      "gelegt": 6434,
      "agr": 6435,
      "dessen": 6436,
      "Lo": 6437,
      "once": 6438,
      "feel": 6439,
      "directive": 6440,
      "iben": 6441,
      "rules": 6442,
      "ared": 6443,
      "Gesund": 6444,
      "Berichterstatter": 6445,
      "field": 6446,
      "mind": 6447,
      "raph": 6448,
      "aussch": 6449,
      "network": 6450,
      "gern": 6451,
      "absol": 6452,
      "dest": 6453,
      "antrag": 6454,
      "terr": 6455,
      "ferenz": 6456,
      "Dis": 6457,
      "Bau": 6458,
      "einzel": 6459,
      "little": 6460,
      "Gebie": 6461,
      "strong": 6462,
      "Meinung": 6463,
      "zimmer": 6464,
      "affen": 6465,
      "iken": 6466,
      "Invest": 6467,
      "mention": 6468,
      "Char": 6469,
      "milit": 6470,
      "schaffen": 6471,
      "ließen": 6472,
      "wahr": 6473,
      "fel": 6474,
      "cript": 6475,
      "zer": 6476,
      "Ter": 6477,
      "imate": 6478,
      "Gäste": 6479,
      "things": 6480,
      "Uns": 6481,
      "iful": 6482,
      "Projekt": 6483,
      "extrem": 6484,
      "function": 6485,
      "ierungen": 6486,
      "towards": 6487,
      "until": 6488,
      "grün": 6489,
      "entsprechen": 6490,
      "soci": 6491,
      "icle": 6492,
      "situ": 6493,
      "ifft": 6494,
      "commend": 6495,
      "Span": 6496,
      "hät": 6497,
      "weis": 6498,
      "21": 6499,
      "ruck": 6500,
      "sty": 6501,
      "hnt": 6502,
      "Kultur": 6503,
      "Fisch": 6504,
      "Ru": 6505,
      "customers": 6506,
      "unserem": 6507,
      "ax": 6508,
      "Gleich": 6509,
      "igkeiten": 6510,
      "Terr": 6511,
      "bestehen": 6512,
      "Madam": 6513,
      "erien": 6514,
      "Region": 6515,
      "Lösung": 6516,
      "auen": 6517,
      "iesen": 6518,
      "technology": 6519,
      "Jul": 6520,
      "gesehen": 6521,
      "amo": 6522,
      "agree": 6523,
      "beiden": 6524,
      "Sep": 6525,
      "keep": 6526,
      "Bas": 6527,
      "National": 6528,
      "grat": 6529,
      "ference": 6530,
      "institutions": 6531,
      "via": 6532,
      "gesagt": 6533,
      "ager": 6534,
      "mann": 6535,
      "Abgeord": 6536,
      "einander": 6537,
      "ichts": 6538,
      "Personen": 6539,
      "za": 6540,
      "IP": 6541,
      "Hilfe": 6542,
      "Gegen": 6543,
      "anzu": 6544,
      "Son": 6545,
      "Zusammenhang": 6546,
      "mosp": 6547,
      "atten": 6548,
      "clos": 6549,
      "Dieses": 6550,
      "sweise": 6551,
      "Sü": 6552,
      "22": 6553,
      "läge": 6554,
      "reicht": 6555,
      "tember": 6556,
      "groß": 6557,
      "2005": 6558,
      "asst": 6559,
      "rop": 6560,
      "ideo": 6561,
      "ritte": 6562,
      "ave": 6563,
      "Schluss": 6564,
      "ification": 6565,
      "Klim": 6566,
      "sw": 6567,
      "Nov": 6568,
      "Kontro": 6569,
      "ote": 6570,
      "reiche": 6571,
      "tt": 6572,
      "macht": 6573,
      "Preis": 6574,
      "lear": 6575,
      "Entschließ": 6576,
      "zogen": 6577,
      "jähr": 6578,
      "flex": 6579,
      "Produkte": 6580,
      "prepar": 6581,
      "ever": 6582,
      "growth": 6583,
      "quite": 6584,
      "opportunity": 6585,
      "isse": 6586,
      "autiful": 6587,
      "Treaty": 6588,
      "photo": 6589,
      "increase": 6590,
      "anst": 6591,
      "teilung": 6592,
      "standards": 6593,
      "idence": 6594,
      "Stre": 6595,
      "Je": 6596,
      "building": 6597,
      "ffiz": 6598,
      "value": 6599,
      "politische": 6600,
      "begrü": 6601,
      "ideal": 6602,
      "Bank": 6603,
      "ativ": 6604,
      "pot": 6605,
      "rather": 6606,
      "prä": 6607,
      "Verantwort": 6608,
      "anim": 6609,
      "sal": 6610,
      "ison": 6611,
      "positive": 6612,
      "Präsidentin": 6613,
      "weniger": 6614,
      "ON": 6615,
      "Date": 6616,
      "baren": 6617,
      "seem": 6618,
      "idency": 6619,
      "activities": 6620,
      "front": 6621,
      "standard": 6622,
      "ucht": 6623,
      "halte": 6624,
      "Can": 6625,
      "70": 6626,
      "bzw": 6627,
      "vision": 6628,
      "etwa": 6629,
      "Demokrat": 6630,
      "partners": 6631,
      "sat": 6632,
      "Kosten": 6633,
      "Mil": 6634,
      "shop": 6635,
      "mean": 6636,
      "came": 6637,
      "Schl": 6638,
      "manu": 6639,
      "Geb": 6640,
      "host": 6641,
      "bitte": 6642,
      "teilen": 6643,
      "might": 6644,
      "ght": 6645,
      "solid": 6646,
      "AP": 6647,
      "erwar": 6648,
      "foc": 6649,
      "four": 6650,
      "After": 6651,
      "stain": 6652,
      "wün": 6653,
      "provided": 6654,
      "prochen": 6655,
      "ently": 6656,
      "daran": 6657,
      "Deshalb": 6658,
      "pool": 6659,
      "hler": 6660,
      "model": 6661,
      "Haushalts": 6662,
      "tele": 6663,
      "Zust": 6664,
      "ona": 6665,
      "Sal": 6666,
      "erfolg": 6667,
      "gilt": 6668,
      "Gemeinschaft": 6669,
      "gute": 6670,
      "force": 6671,
      "aktu": 6672,
      "apan": 6673,
      "fäh": 6674,
      "Sou": 6675,
      "edom": 6676,
      "jeden": 6677,
      "night": 6678,
      "leistungen": 6679,
      "persön": 6680,
      "forderungen": 6681,
      "yet": 6682,
      "som": 6683,
      "resources": 6684,
      "kennen": 6685,
      "heart": 6686,
      "ott": 6687,
      "raum": 6688,
      "indem": 6689,
      "content": 6690,
      "One": 6691,
      "September": 6692,
      "lat": 6693,
      "Bal": 6694,
      "Members": 6695,
      "öffentlichen": 6696,
      "Text": 6697,
      "station": 6698,
      "AD": 6699,
      "stück": 6700,
      "team": 6701,
      "vert": 6702,
      "schrift": 6703,
      "Austr": 6704,
      "utet": 6705,
      "left": 6706,
      "gemacht": 6707,
      "having": 6708,
      "verständ": 6709,
      "fragen": 6710,
      "2004": 6711,
      "gewähr": 6712,
      "stadt": 6713,
      "signific": 6714,
      "fang": 6715,
      "mail": 6716,
      "laub": 6717,
      "entscheiden": 6718,
      "ension": 6719,
      "unge": 6720,
      "members": 6721,
      "öffentlich": 6722,
      "include": 6723,
      "wahl": 6724,
      "Erfahr": 6725,
      "altung": 6726,
      "icken": 6727,
      "body": 6728,
      "ana": 6729,
      "week": 6730,
      "schl": 6731,
      "ften": 6732,
      "times": 6733,
      "beautiful": 6734,
      "reserv": 6735,
      "ibil": 6736,
      "aren": 6737,
      "onger": 6738,
      "Priv": 6739,
      "State": 6740,
      "ladies": 6741,
      "framework": 6742,
      "minutes": 6743,
      "along": 6744,
      "sogar": 6745,
      "educ": 6746,
      "easy": 6747,
      "ücksicht": 6748,
      "solution": 6749,
      "EL": 6750,
      "Millionen": 6751,
      "kar": 6752,
      "haus": 6753,
      "ächlich": 6754,
      "Verfahren": 6755,
      "Stru": 6756,
      "amental": 6757,
      "super": 6758,
      "leisten": 6759,
      "gerade": 6760,
      "rechts": 6761,
      "Jahres": 6762,
      "ämlich": 6763,
      "Europas": 6764,
      "beginn": 6765,
      "zeigen": 6766,
      "Sozial": 6767,
      "border": 6768,
      "kung": 6769,
      "Initi": 6770,
      "Sel": 6771,
      "step": 6772,
      "Ort": 6773,
      "points": 6774,
      "tober": 6775,
      "remain": 6776,
      "sichtlich": 6777,
      "nämlich": 6778,
      "ros": 6779,
      "CD": 6780,
      "amendments": 6781,
      "Punkt": 6782,
      "proposals": 6783,
      "words": 6784,
      "Pa": 6785,
      "eren": 6786,
      "mass": 6787,
      "unterschied": 6788,
      "ric": 6789,
      "Israel": 6790,
      "uen": 6791,
      "costs": 6792,
      "völker": 6793,
      "änger": 6794,
      "mess": 6795,
      "Unsere": 6796,
      "meisten": 6797,
      "imes": 6798,
      "recommend": 6799,
      "safety": 6800,
      "check": 6801,
      "Zugang": 6802,
      "erziel": 6803,
      "Tür": 6804,
      "brauchen": 6805,
      "Dieser": 6806,
      "tag": 6807,
      "Kap": 6808,
      "ihn": 6809,
      "Geld": 6810,
      "aged": 6811,
      "Rates": 6812,
      "ring": 6813,
      "198": 6814,
      "Deutschland": 6815,
      "Design": 6816,
      "economy": 6817,
      "OR": 6818,
      "ebenfalls": 6819,
      "zeichnet": 6820,
      "above": 6821,
      "Wh": 6822,
      "Che": 6823,
      "appropr": 6824,
      "cop": 6825,
      "racy": 6826,
      "stant": 6827,
      "mm": 6828,
      "Website": 6829,
      "makes": 6830,
      "Institution": 6831,
      "website": 6832,
      "mobil": 6833,
      "due": 6834,
      "viol": 6835,
      "lei": 6836,
      "Leist": 6837,
      "relation": 6838,
      "bew": 6839,
      "entire": 6840,
      "Janu": 6841,
      "rate": 6842,
      "ihm": 6843,
      "moder": 6844,
      "adopted": 6845,
      "challen": 6846,
      "Hol": 6847,
      "seinem": 6848,
      "charac": 6849,
      "Eng": 6850,
      "Nicht": 6851,
      "don": 6852,
      "verbunden": 6853,
      "Restaurant": 6854,
      "Engl": 6855,
      "Verhand": 6856,
      "staat": 6857,
      "central": 6858,
      "Prof": 6859,
      "Qualität": 6860,
      "bath": 6861,
      "perfect": 6862,
      "send": 6863,
      "ify": 6864,
      "reib": 6865,
      "rela": 6866,
      "einigen": 6867,
      "return": 6868,
      "darf": 6869,
      "never": 6870,
      "2003": 6871,
      "cli": 6872,
      "aurants": 6873,
      "Aussprache": 6874,
      "behalf": 6875,
      "beral": 6876,
      "Tats": 6877,
      "arbeitet": 6878,
      "Buch": 6879,
      "zune": 6880,
      "verkehr": 6881,
      "minister": 6882,
      "sites": 6883,
      "others": 6884,
      "opinion": 6885,
      "past": 6886,
      "Ebene": 6887,
      "lot": 6888,
      "sens": 6889,
      "Nä": 6890,
      "schö": 6891,
      "provides": 6892,
      "sof": 6893,
      "complete": 6894,
      "unst": 6895,
      "läss": 6896,
      "unterstützt": 6897,
      "nete": 6898,
      "heim": 6899,
      "application": 6900,
      "beh": 6901,
      "icial": 6902,
      "ging": 6903,
      "sea": 6904,
      "zustellen": 6905,
      "agricult": 6906,
      "inge": 6907,
      "Jo": 6908,
      "results": 6909,
      "OS": 6910,
      "effective": 6911,
      "liches": 6912,
      "Bezug": 6913,
      "projects": 6914,
      "legislation": 6915,
      "reffen": 6916,
      "Sh": 6917,
      "bour": 6918,
      "iled": 6919,
      "platz": 6920,
      "bahn": 6921,
      "27": 6922,
      "Abstimmung": 6923,
      "istic": 6924,
      "Verbind": 6925,
      "Sub": 6926,
      "aufge": 6927,
      "prove": 6928,
      "ames": 6929,
      "ledge": 6930,
      "Off": 6931,
      "üt": 6932,
      "attention": 6933,
      "einge": 6934,
      "risk": 6935,
      "künft": 6936,
      "forman": 6937,
      "Früh": 6938,
      "conf": 6939,
      "win": 6940,
      "berg": 6941,
      "stimmen": 6942,
      "responsibility": 6943,
      "groups": 6944,
      "Mär": 6945,
      "administr": 6946,
      "stu": 6947,
      "gebung": 6948,
      "vier": 6949,
      "darin": 6950,
      "glaube": 6951,
      "isiert": 6952,
      "Meer": 6953,
      "teile": 6954,
      "erklär": 6955,
      "total": 6956,
      "East": 6957,
      "concerned": 6958,
      "Christ": 6959,
      "Kam": 6960,
      "bekannt": 6961,
      "simply": 6962,
      "derzeit": 6963,
      "Just": 6964,
      "hens": 6965,
      "Rei": 6966,
      "ständig": 6967,
      "Mail": 6968,
      "questions": 6969,
      "demokrat": 6970,
      "Fä": 6971,
      "dürfen": 6972,
      "nichts": 6973,
      "Hö": 6974,
      "udes": 6975,
      "freedom": 6976,
      "freund": 6977,
      "komple": 6978,
      "Verkehr": 6979,
      "bare": 6980,
      "assist": 6981,
      "graph": 6982,
      "fung": 6983,
      "herr": 6984,
      "structure": 6985,
      "Jahrhunder": 6986,
      "Room": 6987,
      "offe": 6988,
      "young": 6989,
      "ench": 6990,
      "Rechte": 6991,
      "möglichen": 6992,
      "Benutz": 6993,
      "Organisation": 6994,
      "Dank": 6995,
      "infl": 6996,
      "Entwicklungs": 6997,
      "termin": 6998,
      "democr": 6999,
      "uth": 7000,
      "holiday": 7001,
      "cir": 7002,
      "sse": 7003,
      "zä": 7004,
      "link": 7005,
      "firm": 7006,
      "nationalen": 7007,
      "importance": 7008,
      "fordern": 7009,
      "policies": 7010,
      "lig": 7011,
      "stor": 7012,
      "Kur": 7013,
      "bro": 7014,
      "ift": 7015,
      "breakfast": 7016,
      "keinen": 7017,
      "add": 7018,
      "Abkommen": 7019,
      "aud": 7020,
      "iers": 7021,
      "context": 7022,
      "gestimmt": 7023,
      "natural": 7024,
      "Verbraucher": 7025,
      "sollen": 7026,
      "ihrem": 7027,
      "voted": 7028,
      "kurz": 7029,
      "prevent": 7030,
      "beispiel": 7031,
      "speziel": 7032,
      "2001": 7033,
      "Groß": 7034,
      "Dok": 7035,
      "ka": 7036,
      "ächst": 7037,
      "reiben": 7038,
      "ceed": 7039,
      "una": 7040,
      "zusätz": 7041,
      "uz": 7042,
      "Pra": 7043,
      "society": 7044,
      "ene": 7045,
      "PC": 7046,
      "Dam": 7047,
      "bleiben": 7048,
      "wenig": 7049,
      "Wach": 7050,
      "van": 7051,
      "environmental": 7052,
      "Mor": 7053,
      "method": 7054,
      "aktiv": 7055,
      "Kolleg": 7056,
      "ada": 7057,
      "commod": 7058,
      "Of": 7059,
      "forts": 7060,
      "mitted": 7061,
      "answer": 7062,
      "music": 7063,
      "ders": 7064,
      "quick": 7065,
      "cu": 7066,
      "strategy": 7067,
      "äter": 7068,
      "leader": 7069,
      "greater": 7070,
      "looking": 7071,
      "ama": 7072,
      "utzt": 7073,
      "lines": 7074,
      "betrifft": 7075,
      "clean": 7076,
      "wärt": 7077,
      "Ple": 7078,
      "training": 7079,
      "Debat": 7080,
      "verbess": 7081,
      "interess": 7082,
      "griff": 7083,
      "unkte": 7084,
      "pages": 7085,
      "llt": 7086,
      "Beschäft": 7087,
      "Windows": 7088,
      "unächst": 7089,
      "Sa": 7090,
      "increasing": 7091,
      "tin": 7092,
      "board": 7093,
      "Gesetz": 7094,
      "manufact": 7095,
      "spir": 7096,
      "passen": 7097,
      "onstr": 7098,
      "istan": 7099,
      "weiterhin": 7100,
      "Sitz": 7101,
      "arian": 7102,
      "eller": 7103,
      "setzt": 7104,
      "Sport": 7105,
      "verein": 7106,
      "besten": 7107,
      "Disk": 7108,
      "ri": 7109,
      "entliche": 7110,
      "required": 7111,
      "Apr": 7112,
      "Bil": 7113,
      "IM": 7114,
      "dan": 7115,
      "anderer": 7116,
      "sei": 7117,
      "mals": 7118,
      "Strategie": 7119,
      "drück": 7120,
      "mechan": 7121,
      "hes": 7122,
      "moment": 7123,
      "bung": 7124,
      "principle": 7125,
      "cultural": 7126,
      "gestat": 7127,
      "Bem": 7128,
      "ined": 7129,
      "benöt": 7130,
      "May": 7131,
      "Fortsch": 7132,
      "changes": 7133,
      "demand": 7134,
      "prec": 7135,
      "Wohn": 7136,
      "century": 7137,
      "ball": 7138,
      "Sicherheits": 7139,
      "deutlich": 7140,
      "geschlagen": 7141,
      "significant": 7142,
      "Cor": 7143,
      "Von": 7144,
      "moun": 7145,
      "sug": 7146,
      "schwer": 7147,
      "unch": 7148,
      "mission": 7149,
      "relax": 7150,
      "Schul": 7151,
      "safe": 7152,
      "responsible": 7153,
      "ites": 7154,
      "Klima": 7155,
      "Japan": 7156,
      "lange": 7157,
      "wichtige": 7158,
      "ID": 7159,
      "amb": 7160,
      "bedeutet": 7161,
      "hib": 7162,
      "meeting": 7163,
      "share": 7164,
      "Änderungsan": 7165,
      "Gl": 7166,
      "useum": 7167,
      "Foto": 7168,
      "zehn": 7169,
      "By": 7170,
      "capital": 7171,
      "gas": 7172,
      "gratul": 7173,
      "sid": 7174,
      "Wel": 7175,
      "nutzen": 7176,
      "verfahren": 7177,
      "ocracy": 7178,
      "posed": 7179,
      "ehr": 7180,
      "inten": 7181,
      "deshalb": 7182,
      "Stat": 7183,
      "vement": 7184,
      "Betrie": 7185,
      "November": 7186,
      "aging": 7187,
      "Gover": 7188,
      "ichen": 7189,
      "Gesellschaft": 7190,
      "clearly": 7191,
      "Fund": 7192,
      "Op": 7193,
      "try": 7194,
      "ators": 7195,
      "nu": 7196,
      "cast": 7197,
      "technical": 7198,
      "struktur": 7199,
      "stum": 7200,
      "solche": 7201,
      "distrib": 7202,
      "boten": 7203,
      "essential": 7204,
      "scho": 7205,
      "Ju": 7206,
      "atal": 7207,
      "continu": 7208,
      "suggest": 7209,
      "wirtschaftlichen": 7210,
      "space": 7211,
      "stop": 7212,
      "gehört": 7213,
      "Mitarbeit": 7214,
      "hab": 7215,
      "teilt": 7216,
      "seits": 7217,
      "2002": 7218,
      "akzept": 7219,
      "90": 7220,
      "First": 7221,
      "Gre": 7222,
      "Sc": 7223,
      "gliche": 7224,
      "funktion": 7225,
      "authorities": 7226,
      "würden": 7227,
      "grup": 7228,
      "Bezieh": 7229,
      "terror": 7230,
      "gebracht": 7231,
      "remo": 7232,
      "achieve": 7233,
      "Dokument": 7234,
      "Insel": 7235,
      "sustain": 7236,
      "äsent": 7237,
      "facilities": 7238,
      "einzu": 7239,
      "solutions": 7240,
      "according": 7241,
      "directly": 7242,
      "live": 7243,
      "Netz": 7244,
      "alter": 7245,
      "Far": 7246,
      "span": 7247,
      "acy": 7248,
      "restaurant": 7249,
      "General": 7250,
      "aup": 7251,
      "Will": 7252,
      "nature": 7253,
      "aufgrund": 7254,
      "longer": 7255,
      "ai": 7256,
      "esen": 7257,
      "enough": 7258,
      "Musik": 7259,
      "nächsten": 7260,
      "April": 7261,
      "unver": 7262,
      "500": 7263,
      "züglich": 7264,
      "Richtung": 7265,
      "Prozess": 7266,
      "months": 7267,
      "guests": 7268,
      "frist": 7269,
      "Fern": 7270,
      "corre": 7271,
      "pfung": 7272,
      "cure": 7273,
      "takt": 7274,
      "erous": 7275,
      "aspect": 7276,
      "currently": 7277,
      "internal": 7278,
      "yl": 7279,
      "history": 7280,
      "Wert": 7281,
      "itäts": 7282,
      "active": 7283,
      "cla": 7284,
      "Tro": 7285,
      "Nähe": 7286,
      "Ansicht": 7287,
      "haltung": 7288,
      "mod": 7289,
      "Book": 7290,
      "Besuch": 7291,
      "Bevölker": 7292,
      "ables": 7293,
      "ulture": 7294,
      "inzip": 7295,
      "Industrie": 7296,
      "crimin": 7297,
      "Demokratie": 7298,
      "fundamental": 7299,
      "üssel": 7300,
      "fairs": 7301,
      "Please": 7302,
      "events": 7303,
      "fehl": 7304,
      "schluss": 7305,
      "loss": 7306,
      "zel": 7307,
      "fam": 7308,
      "werde": 7309,
      "needed": 7310,
      "Opt": 7311,
      "related": 7312,
      "ought": 7313,
      "mp": 7314,
      "Herren": 7315,
      "developed": 7316,
      "AM": 7317,
      "Ira": 7318,
      "proposed": 7319,
      "Steuer": 7320,
      "Menschenrechte": 7321,
      "hörden": 7322,
      "language": 7323,
      "mbH": 7324,
      "Bre": 7325,
      "Umsetzung": 7326,
      "formance": 7327,
      "aper": 7328,
      "affect": 7329,
      "character": 7330,
      "bra": 7331,
      "select": 7332,
      "pflicht": 7333,
      "allerdings": 7334,
      "requirements": 7335,
      "From": 7336,
      "neuer": 7337,
      "länd": 7338,
      "item": 7339,
      "comfortable": 7340,
      "extra": 7341,
      "normal": 7342,
      "condition": 7343,
      "RE": 7344,
      "ided": 7345,
      "Instrument": 7346,
      "Förder": 7347,
      "combin": 7348,
      "SE": 7349,
      "hoffe": 7350,
      "Tele": 7351,
      "eth": 7352,
      "card": 7353,
      "Struktur": 7354,
      "Version": 7355,
      "greifen": 7356,
      "Team": 7357,
      "Außen": 7358,
      "Verbesser": 7359,
      "fight": 7360,
      "volle": 7361,
      "interests": 7362,
      "individu": 7363,
      "please": 7364,
      "center": 7365,
      "civil": 7366,
      "apply": 7367,
      "dien": 7368,
      "establish": 7369,
      "enthalten": 7370,
      "Mot": 7371,
      "parties": 7372,
      "sition": 7373,
      "Govern": 7374,
      "option": 7375,
      "weder": 7376,
      "Tages": 7377,
      "mob": 7378,
      "involved": 7379,
      "dy": 7380,
      "Vertr": 7381,
      "26": 7382,
      "Ide": 7383,
      "themselves": 7384,
      "separ": 7385,
      "contain": 7386,
      "lö": 7387,
      "happen": 7388,
      "recogn": 7389,
      "ception": 7390,
      "tä": 7391,
      "Kunst": 7392,
      "Verantwortung": 7393,
      "Du": 7394,
      "ano": 7395,
      "Russia": 7396,
      "anti": 7397,
      "amt": 7398,
      "Anwendung": 7399,
      "ping": 7400,
      "park": 7401,
      "upon": 7402,
      "extremely": 7403,
      "Brit": 7404,
      "Plan": 7405,
      "bad": 7406,
      "fün": 7407,
      "itet": 7408,
      "complet": 7409,
      "gefähr": 7410,
      "Ziele": 7411,
      "GmbH": 7412,
      "regions": 7413,
      "hon": 7414,
      "abel": 7415,
      "Paris": 7416,
      "atch": 7417,
      "foreign": 7418,
      "bot": 7419,
      "nimmt": 7420,
      "lied": 7421,
      "ellung": 7422,
      "organisation": 7423,
      "pon": 7424,
      "arf": 7425,
      "friendly": 7426,
      "democracy": 7427,
      "scheint": 7428,
      "Bedingungen": 7429,
      "type": 7430,
      "competition": 7431,
      "notwendig": 7432,
      "markets": 7433,
      "Erfolg": 7434,
      "jeweil": 7435,
      "stead": 7436,
      "ßt": 7437,
      "Parte": 7438,
      "verwendet": 7439,
      "Aug": 7440,
      "gesetz": 7441,
      "beispielsweise": 7442,
      "chter": 7443,
      "regulation": 7444,
      "anten": 7445,
      "competit": 7446,
      "richtung": 7447,
      "iellen": 7448,
      "Selbst": 7449,
      "phone": 7450,
      "efforts": 7451,
      "acc": 7452,
      "file": 7453,
      "held": 7454,
      "wirkungen": 7455,
      "Ihrem": 7456,
      "implementation": 7457,
      "spect": 7458,
      "kleinen": 7459,
      "llig": 7460,
      "Emp": 7461,
      "cases": 7462,
      "soon": 7463,
      "Krit": 7464,
      "hinder": 7465,
      "fekt": 7466,
      "Verf": 7467,
      "iner": 7468,
      "Interesse": 7469,
      "Einsatz": 7470,
      "Vorschläge": 7471,
      "sound": 7472,
      "weiß": 7473,
      "vielleicht": 7474,
      "bevor": 7475,
      "document": 7476,
      "How": 7477,
      "brit": 7478,
      "gemeinsamen": 7479,
      "Aktiv": 7480,
      "heraus": 7481,
      "gemeinsam": 7482,
      "altern": 7483,
      "elegen": 7484,
      "betra": 7485,
      "maxim": 7486,
      "Erweiter": 7487,
      "South": 7488,
      "farm": 7489,
      "chem": 7490,
      "illa": 7491,
      "Kön": 7492,
      "Trans": 7493,
      "etzen": 7494,
      "Aspe": 7495,
      "Gebiet": 7496,
      "caus": 7497,
      "unternehmen": 7498,
      "Reihe": 7499,
      "Wort": 7500,
      "promot": 7501,
      "28": 7502,
      "Geschichte": 7503,
      "erfü": 7504,
      "Daher": 7505,
      "Wieder": 7506,
      "More": 7507,
      "Außer": 7508,
      "situated": 7509,
      "ermöglich": 7510,
      "works": 7511,
      "kor": 7512,
      "Real": 7513,
      "Grundlage": 7514,
      "messen": 7515,
      "standen": 7516,
      "minim": 7517,
      "wider": 7518,
      "thus": 7519,
      "erreicht": 7520,
      "kei": 7521,
      "clar": 7522,
      "hung": 7523,
      "berücksicht": 7524,
      "linien": 7525,
      "hor": 7526,
      "Unser": 7527,
      "Frieden": 7528,
      "ired": 7529,
      "Möglichkeiten": 7530,
      "protect": 7531,
      "advant": 7532,
      "mand": 7533,
      "France": 7534,
      "sitz": 7535,
      "www": 7536,
      "Rad": 7537,
      "va": 7538,
      "West": 7539,
      "Zus": 7540,
      "Angelegen": 7541,
      "tell": 7542,
      "previous": 7543,
      "either": 7544,
      "contract": 7545,
      "höch": 7546,
      "travel": 7547,
      "oblig": 7548,
      "Platz": 7549,
      "Raum": 7550,
      "rup": 7551,
      "Nord": 7552,
      "Office": 7553,
      "Cour": 7554,
      "appropriate": 7555,
      "Funktion": 7556,
      "ME": 7557,
      "attract": 7558,
      "gets": 7559,
      "indic": 7560,
      "true": 7561,
      "created": 7562,
      "fordert": 7563,
      "mel": 7564,
      "vorsch": 7565,
      "final": 7566,
      "entwickelt": 7567,
      "harmon": 7568,
      "Kle": 7569,
      "everything": 7570,
      "pict": 7571,
      "mid": 7572,
      "esten": 7573,
      "Kir": 7574,
      "danken": 7575,
      "Debatte": 7576,
      "andid": 7577,
      "Nie": 7578,
      "merksam": 7579,
      "sucht": 7580,
      "unique": 7581,
      "schwier": 7582,
      "claim": 7583,
      "istischen": 7584,
      "Wissen": 7585,
      "ony": 7586,
      "Apart": 7587,
      "negotiations": 7588,
      "Damen": 7589,
      "Inst": 7590,
      "sozialen": 7591,
      "isher": 7592,
      "kontro": 7593,
      "surround": 7594,
      "Cas": 7595,
      "gleichen": 7596,
      "ski": 7597,
      "lose": 7598,
      "later": 7599,
      "actions": 7600,
      "befinden": 7601,
      "Erklär": 7602,
      "prise": 7603,
      "atory": 7604,
      "famous": 7605,
      "Druck": 7606,
      "disk": 7607,
      "gelten": 7608,
      "Bü": 7609,
      "seen": 7610,
      "Arch": 7611,
      "ey": 7612,
      "Entscheidung": 7613,
      "ule": 7614,
      "Öff": 7615,
      "immed": 7616,
      "Integr": 7617,
      "anced": 7618,
      "1999": 7619,
      "zunehmen": 7620,
      "maintain": 7621,
      "struction": 7622,
      "modif": 7623,
      "states": 7624,
      "ibr": 7625,
      "accommod": 7626,
      "Institutionen": 7627,
      "ases": 7628,
      "American": 7629,
      "links": 7630,
      "additional": 7631,
      "Publ": 7632,
      "gy": 7633,
      "French": 7634,
      "ination": 7635,
      "developing": 7636,
      "schre": 7637,
      "prices": 7638,
      "exten": 7639,
      "kam": 7640,
      "miss": 7641,
      "Blick": 7642,
      "commer": 7643,
      "democratic": 7644,
      "Minuten": 7645,
      "happ": 7646,
      "verschiedene": 7647,
      "prim": 7648,
      "erwä": 7649,
      "hip": 7650,
      "living": 7651,
      "almost": 7652,
      "dialog": 7653,
      "parts": 7654,
      "umfassen": 7655,
      "designed": 7656,
      "achen": 7657,
      "weltweit": 7658,
      "demonstr": 7659,
      "avo": 7660,
      "climate": 7661,
      "Frühstück": 7662,
      "istet": 7663,
      "achten": 7664,
      "verfügt": 7665,
      "ingt": 7666,
      "monitor": 7667,
      "arbeitung": 7668,
      "camp": 7669,
      "allgem": 7670,
      "könnten": 7671,
      "ature": 7672,
      "nehm": 7673,
      "regel": 7674,
      "improve": 7675,
      "Mitglieder": 7676,
      "funds": 7677,
      "education": 7678,
      "rich": 7679,
      "included": 7680,
      "analys": 7681,
      "Presidency": 7682,
      "Hoch": 7683,
      "Tod": 7684,
      "peten": 7685,
      "onen": 7686,
      "CH": 7687,
      "uses": 7688,
      "idea": 7689,
      "fu": 7690,
      "actually": 7691,
      "vorgeschlagen": 7692,
      "Doch": 7693,
      "Inform": 7694,
      "walk": 7695,
      "unik": 7696,
      "rid": 7697,
      "chang": 7698,
      "euro": 7699,
      "intens": 7700,
      "Diskuss": 7701,
      "receive": 7702,
      "hinzu": 7703,
      "ermöglicht": 7704,
      "35": 7705,
      "rä": 7706,
      "hold": 7707,
      "Luft": 7708,
      "Kraft": 7709,
      "ari": 7710,
      "bef": 7711,
      "Heraus": 7712,
      "hatten": 7713,
      "itens": 7714,
      "gemeinsame": 7715,
      "vic": 7716,
      "frü": 7717,
      "helfen": 7718,
      "respon": 7719,
      "--": 7720,
      "dev": 7721,
      "haps": 7722,
      "Verwalt": 7723,
      "spräsident": 7724,
      "five": 7725,
      "gab": 7726,
      "fortun": 7727,
      "Änderungsantrag": 7728,
      "chs": 7729,
      "Har": 7730,
      "ießen": 7731,
      "Met": 7732,
      "rieben": 7733,
      "tats": 7734,
      "Agr": 7735,
      "early": 7736,
      "ürz": 7737,
      "Lis": 7738,
      "heiß": 7739,
      "knowledge": 7740,
      "bildung": 7741,
      "orient": 7742,
      "seite": 7743,
      "Host": 7744,
      "plant": 7745,
      "gain": 7746,
      "dependent": 7747,
      "Dienstleistungen": 7748,
      "iment": 7749,
      "29": 7750,
      "uren": 7751,
      "LE": 7752,
      "iting": 7753,
      "gesellschaft": 7754,
      "built": 7755,
      "Hinblick": 7756,
      "leading": 7757,
      "partner": 7758,
      "takes": 7759,
      "iffen": 7760,
      "Auswirkungen": 7761,
      "bisher": 7762,
      "communication": 7763,
      "download": 7764,
      "Landes": 7765,
      "Proto": 7766,
      "wr": 7767,
      "ending": 7768,
      "Seit": 7769,
      "igungs": 7770,
      "ebenso": 7771,
      "race": 7772,
      "erhö": 7773,
      "getr": 7774,
      "Ergebnis": 7775,
      "instrument": 7776,
      "outside": 7777,
      "spielen": 7778,
      "Lond": 7779,
      "encour": 7780,
      "ielle": 7781,
      "users": 7782,
      "pal": 7783,
      "professional": 7784,
      "zone": 7785,
      "chsel": 7786,
      "Schritt": 7787,
      "erforderlich": 7788,
      "Programme": 7789,
      "features": 7790,
      "entsch": 7791,
      "isieren": 7792,
      "itung": 7793,
      "sprech": 7794,
      "dre": 7795,
      "kra": 7796,
      "bedeuten": 7797,
      "August": 7798,
      "dict": 7799,
      "Familien": 7800,
      "jenigen": 7801,
      "cies": 7802,
      "krä": 7803,
      "Verhandlungen": 7804,
      "associ": 7805,
      "Liste": 7806,
      "initiative": 7807,
      "Regionen": 7808,
      "Bu": 7809,
      "Zur": 7810,
      "fünf": 7811,
      "adurch": 7812,
      "Vertre": 7813,
      "pan": 7814,
      "original": 7815,
      "Zentrum": 7816,
      "Pf": 7817,
      "consult": 7818,
      "gesamten": 7819,
      "schön": 7820,
      "Haf": 7821,
      "ausgestat": 7822,
      "schriften": 7823,
      "ilar": 7824,
      "hours": 7825,
      "verantwort": 7826,
      "pet": 7827,
      "bru": 7828,
      "amerikan": 7829,
      "amount": 7830,
      "45": 7831,
      "procedure": 7832,
      "tack": 7833,
      "jud": 7834,
      "Innen": 7835,
      "Mob": 7836,
      "hend": 7837,
      "auber": 7838,
      "Net": 7839,
      "Ausdruck": 7840,
      "Portug": 7841,
      "Einzel": 7842,
      "itions": 7843,
      "lik": 7844,
      "Tatsache": 7845,
      "enable": 7846,
      "später": 7847,
      "refle": 7848,
      "North": 7849,
      "Kolleginnen": 7850,
      "took": 7851,
      "ald": 7852,
      "hinter": 7853,
      "einzelnen": 7854,
      "Gruppe": 7855,
      "workers": 7856,
      "läs": 7857,
      "darum": 7858,
      "Online": 7859,
      "größer": 7860,
      "Dan": 7861,
      "customer": 7862,
      "Außerdem": 7863,
      "Ha": 7864,
      "spricht": 7865,
      "Iran": 7866,
      "exclus": 7867,
      "erhe": 7868,
      "resol": 7869,
      "Zum": 7870,
      "majority": 7871,
      "Ster": 7872,
      "impact": 7873,
      "doing": 7874,
      "wunder": 7875,
      "cru": 7876,
      "denke": 7877,
      "club": 7878,
      "Antwort": 7879,
      "itionen": 7880,
      "Vis": 7881,
      "election": 7882,
      "Binnen": 7883,
      "197": 7884,
      "weiteren": 7885,
      "Forschung": 7886,
      "Abgeordneten": 7887,
      "emphas": 7888,
      "aster": 7889,
      "indest": 7890,
      "lok": 7891,
      "throughout": 7892,
      "Führ": 7893,
      "Up": 7894,
      "bian": 7895,
      "record": 7896,
      "London": 7897,
      "search": 7898,
      "sl": 7899,
      "Mag": 7900,
      "across": 7901,
      "Werk": 7902,
      "vin": 7903,
      "ieb": 7904,
      "profit": 7905,
      "connection": 7906,
      "Dialog": 7907,
      "mitteln": 7908,
      "game": 7909,
      "laden": 7910,
      "wachsen": 7911,
      "änden": 7912,
      "Ris": 7913,
      "traditional": 7914,
      "Play": 7915,
      "neben": 7916,
      "guarantee": 7917,
      "entre": 7918,
      "ändert": 7919,
      "jedem": 7920,
      "präsent": 7921,
      "Beg": 7922,
      "folge": 7923,
      "roll": 7924,
      "internationale": 7925,
      "orf": 7926,
      "media": 7927,
      "angenommen": 7928,
      "ternal": 7929,
      "Änderungsanträge": 7930,
      "för": 7931,
      "oun": 7932,
      "konnte": 7933,
      "writing": 7934,
      "rates": 7935,
      "cross": 7936,
      "certainly": 7937,
      "print": 7938,
      "öst": 7939,
      "Let": 7940,
      "Di": 7941,
      "richtig": 7942,
      "corpor": 7943,
      "mentioned": 7944,
      "schle": 7945,
      "Weiter": 7946,
      "effiz": 7947,
      "rund": 7948,
      "absolut": 7949,
      "Angeb": 7950,
      "dle": 7951,
      "performance": 7952,
      "usst": 7953,
      "Terror": 7954,
      "relig": 7955,
      "Univers": 7956,
      "colleag": 7957,
      "hätte": 7958,
      "igration": 7959,
      "Handel": 7960,
      "Gra": 7961,
      "gän": 7962,
      "Bahn": 7963,
      "Bereichen": 7964,
      "got": 7965,
      "party": 7966,
      "English": 7967,
      "investment": 7968,
      "ült": 7969,
      "tran": 7970,
      "iversit": 7971,
      "ograph": 7972,
      "relations": 7973,
      "Proz": 7974,
      "lux": 7975,
      "existing": 7976,
      "aring": 7977,
      "correct": 7978,
      "Bevölkerung": 7979,
      "complex": 7980,
      "fähigkeit": 7981,
      "forms": 7982,
      "consequ": 7983,
      "itten": 7984,
      "Star": 7985,
      "strengthen": 7986,
      "prakt": 7987,
      "gegenwärt": 7988,
      "Staats": 7989,
      "sun": 7990,
      "relev": 7991,
      "gal": 7992,
      "concerns": 7993,
      "code": 7994,
      "sent": 7995,
      "anzen": 7996,
      "Gelegen": 7997,
      "Beziehungen": 7998,
      "although": 7999,
      "Turkey": 8000,
      "kämpfung": 8001,
      "Verbindung": 8002,
      "Fuß": 8003,
      "ST": 8004,
      "gleichzeitig": 8005,
      "Vereinigten": 8006,
      "enor": 8007,
      "wichtigen": 8008,
      "iens": 8009,
      "dete": 8010,
      "formen": 8011,
      "Handels": 8012,
      "onom": 8013,
      "speed": 8014,
      "Standard": 8015,
      "zif": 8016,
      "parliament": 8017,
      "mein": 8018,
      "bleibt": 8019,
      "ush": 8020,
      "auszu": 8021,
      "ull": 8022,
      "Centr": 8023,
      "aware": 8024,
      "ieben": 8025,
      "300": 8026,
      "heißt": 8027,
      "zeugen": 8028,
      "Akt": 8029,
      "jede": 8030,
      "Schlussel": 8031,
      "programmes": 8032,
      "America": 8033,
      "bekommen": 8034,
      "sex": 8035,
      "PE": 8036,
      "digital": 8037,
      "haft": 8038,
      "internet": 8039,
      "gemäß": 8040,
      "kleine": 8041,
      "cker": 8042,
      "Government": 8043,
      "letzt": 8044,
      "neut": 8045,
      "ausch": 8046,
      "computer": 8047,
      "Themen": 8048,
      "barkeit": 8049,
      "Fischere": 8050,
      "confl": 8051,
      "kn": 8052,
      "ij": 8053,
      "completely": 8054,
      "Aufgabe": 8055,
      "culture": 8056,
      "pleas": 8057,
      "warm": 8058,
      "igte": 8059,
      "amera": 8060,
      "hase": 8061,
      "nothing": 8062,
      "community": 8063,
      "Beitrag": 8064,
      "Krise": 8065,
      "west": 8066,
      "committee": 8067,
      "transfer": 8068,
      "coordin": 8069,
      "files": 8070,
      "abon": 8071,
      "Sor": 8072,
      "assess": 8073,
      "Febru": 8074,
      "alb": 8075,
      "verständlich": 8076,
      "Haushalt": 8077,
      "Home": 8078,
      "extens": 8079,
      "Interessen": 8080,
      "image": 8081,
      "transl": 8082,
      "equipped": 8083,
      "Barcel": 8084,
      "meinen": 8085,
      "Rel": 8086,
      "military": 8087,
      "jahr": 8088,
      "allows": 8089,
      "includes": 8090,
      "teid": 8091,
      "click": 8092,
      "guest": 8093,
      "box": 8094,
      "reasons": 8095,
      "established": 8096,
      "population": 8097,
      "richtungen": 8098,
      "DV": 8099,
      "Türkei": 8100,
      "concerning": 8101,
      "garant": 8102,
      "gerichtet": 8103,
      "Court": 8104,
      "Kampf": 8105,
      "style": 8106,
      "ctors": 8107,
      "sag": 8108,
      "joint": 8109,
      "construction": 8110,
      "PL": 8111,
      "lässt": 8112,
      "Verordnung": 8113,
      "ires": 8114,
      "tic": 8115,
      "ifel": 8116,
      "official": 8117,
      "nahe": 8118,
      "Management": 8119,
      "cen": 8120,
      "See": 8121,
      "decisions": 8122,
      "practice": 8123,
      "ester": 8124,
      "Thank": 8125,
      "note": 8126,
      "Kontrolle": 8127,
      "bald": 8128,
      "leb": 8129,
      "handlung": 8130,
      "basic": 8131,
      "Wettbewerbs": 8132,
      "credit": 8133,
      "approv": 8134,
      "esh": 8135,
      "quis": 8136,
      "lic": 8137,
      "Club": 8138,
      "Since": 8139,
      "Stabil": 8140,
      "archite": 8141,
      "Reform": 8142,
      "unabhäng": 8143,
      "unseres": 8144,
      "rachten": 8145,
      "iterr": 8146,
      "Dec": 8147,
      "Strand": 8148,
      "Kor": 8149,
      "Lux": 8150,
      "agreements": 8151,
      "eden": 8152,
      "choice": 8153,
      "vö": 8154,
      "capac": 8155,
      "City": 8156,
      "Mitarbeiter": 8157,
      "pfen": 8158,
      "sense": 8159,
      "Verpflicht": 8160,
      "anzös": 8161,
      "jedes": 8162,
      "ava": 8163,
      "hohe": 8164,
      "bert": 8165,
      "handeln": 8166,
      "worten": 8167,
      "plann": 8168,
      "double": 8169,
      "gesamt": 8170,
      "gangenen": 8171,
      "prüfen": 8172,
      "sieht": 8173,
      "trotz": 8174,
      "Pass": 8175,
      "received": 8176,
      "package": 8177,
      "flä": 8178,
      "ländern": 8179,
      "simple": 8180,
      "sett": 8181,
      "unsch": 8182,
      "krit": 8183,
      "Erweiterung": 8184,
      "Schwe": 8185,
      "Förderung": 8186,
      "lant": 8187,
      "ends": 8188,
      "undes": 8189,
      "alte": 8190,
      "itness": 8191,
      "elekt": 8192,
      "elling": 8193,
      "jobs": 8194,
      "stage": 8195,
      "poor": 8196,
      "band": 8197,
      "values": 8198,
      "Server": 8199,
      "Now": 8200,
      "Rechn": 8201,
      "affung": 8202,
      "Agen": 8203,
      "Some": 8204,
      "efficient": 8205,
      "äu": 8206,
      "atmosp": 8207,
      "unities": 8208,
      "satis": 8209,
      "ills": 8210,
      "rom": 8211,
      "bedingungen": 8212,
      "hotels": 8213,
      "richten": 8214,
      "airport": 8215,
      "fail": 8216,
      "ufig": 8217,
      "31": 8218,
      "jour": 8219,
      "nice": 8220,
      "Damit": 8221,
      "applications": 8222,
      "Here": 8223,
      "MS": 8224,
      "conclus": 8225,
      "ersch": 8226,
      "igent": 8227,
      "Anal": 8228,
      "ini": 8229,
      "purch": 8230,
      "door": 8231,
      "Lisbon": 8232,
      "export": 8233,
      "Aufen": 8234,
      "equipment": 8235,
      "Lösungen": 8236,
      "Bitte": 8237,
      "Benutzer": 8238,
      "gerne": 8239,
      "Entschließung": 8240,
      "Pan": 8241,
      "wirtschaftliche": 8242,
      "display": 8243,
      "integration": 8244,
      "popular": 8245,
      "Log": 8246,
      "Don": 8247,
      "Col": 8248,
      "Wochen": 8249,
      "Aufenth": 8250,
      "Ober": 8251,
      "wise": 8252,
      "Folgen": 8253,
      "älle": 8254,
      "Enter": 8255,
      "regarding": 8256,
      "Fur": 8257,
      "Behörden": 8258,
      "move": 8259,
      "hafen": 8260,
      "Veranst": 8261,
      "Eur": 8262,
      "Ham": 8263,
      "engine": 8264,
      "Auswahl": 8265,
      "Bur": 8266,
      "ological": 8267,
      "Pla": 8268,
      "Stunden": 8269,
      "seas": 8270,
      "objectives": 8271,
      "Nutzung": 8272,
      "wichtigsten": 8273,
      "Prior": 8274,
      "Reise": 8275,
      "prob": 8276,
      "ären": 8277,
      "below": 8278,
      "wonder": 8279,
      "Ukra": 8280,
      "fs": 8281,
      "benefit": 8282,
      "Personal": 8283,
      "ET": 8284,
      "immungen": 8285,
      "Frankreich": 8286,
      "south": 8287,
      "wid": 8288,
      "Augen": 8289,
      "kulture": 8290,
      "floor": 8291,
      "tempor": 8292,
      "Wachstum": 8293,
      "struments": 8294,
      "figur": 8295,
      "learn": 8296,
      "fal": 8297,
      "draft": 8298,
      "quickly": 8299,
      "potential": 8300,
      "regular": 8301,
      "Kern": 8302,
      "fallen": 8303,
      "mehrere": 8304,
      "196": 8305,
      "cul": 8306,
      "Global": 8307,
      "ti": 8308,
      "buch": 8309,
      "broad": 8310,
      "OL": 8311,
      "Ty": 8312,
      "ris": 8313,
      "Volks": 8314,
      "industrial": 8315,
      "ffer": 8316,
      "Ausschusses": 8317,
      "Liss": 8318,
      "pite": 8319,
      "Angebot": 8320,
      "experien": 8321,
      "reports": 8322,
      "wenden": 8323,
      "fahrt": 8324,
      "Business": 8325,
      "profession": 8326,
      "suit": 8327,
      "Get": 8328,
      "agricultural": 8329,
      "zahlen": 8330,
      "covered": 8331,
      "Sim": 8332,
      "tho": 8333,
      "Sto": 8334,
      "prozess": 8335,
      "spac": 8336,
      "vertr": 8337,
      "appear": 8338,
      "Fach": 8339,
      "nation": 8340,
      "beein": 8341,
      "respond": 8342,
      "fortunately": 8343,
      "stellungen": 8344,
      "länder": 8345,
      "former": 8346,
      "ganze": 8347,
      "successful": 8348,
      ".,": 8349,
      "itel": 8350,
      "Les": 8351,
      "enthält": 8352,
      "Mic": 8353,
      "ba": 8354,
      "icles": 8355,
      "limited": 8356,
      "objective": 8357,
      "absch": 8358,
      "rupt": 8359,
      "Mer": 8360,
      "promise": 8361,
      "ganzen": 8362,
      "Informations": 8363,
      "verg": 8364,
      "garden": 8365,
      "örper": 8366,
      "rail": 8367,
      "contains": 8368,
      "goods": 8369,
      "counter": 8370,
      "stoff": 8371,
      "treatment": 8372,
      "territ": 8373,
      "Forder": 8374,
      "nachhalt": 8375,
      "nissen": 8376,
      "rü": 8377,
      "series": 8378,
      "rein": 8379,
      "öhn": 8380,
      "Lissabon": 8381,
      "PS": 8382,
      "placed": 8383,
      "aler": 8384,
      "ón": 8385,
      "entwickeln": 8386,
      "Innov": 8387,
      "zy": 8388,
      "Anfang": 8389,
      "ico": 8390,
      "plies": 8391,
      "bezüglich": 8392,
      "focus": 8393,
      "Gree": 8394,
      "ennung": 8395,
      "aul": 8396,
      "Barcelona": 8397,
      "Ta": 8398,
      "seems": 8399,
      "deliver": 8400,
      "geeig": 8401,
      "san": 8402,
      "beteil": 8403,
      "hinsichtlich": 8404,
      "register": 8405,
      "mis": 8406,
      "Mich": 8407,
      "Gesundheit": 8408,
      "achieved": 8409,
      "Central": 8410,
      "aner": 8411,
      "Lat": 8412,
      "mobile": 8413,
      "gefunden": 8414,
      "gewä": 8415,
      "brigen": 8416,
      "recently": 8417,
      "Konferenz": 8418,
      "oppel": 8419,
      "ermöglichen": 8420,
      "furn": 8421,
      "quar": 8422,
      "Somm": 8423,
      "angemessen": 8424,
      "iko": 8425,
      "creation": 8426,
      "office": 8427,
      "Lauf": 8428,
      "Macht": 8429,
      "onnen": 8430,
      "erlau": 8431,
      "indeed": 8432,
      "Tage": 8433,
      "June": 8434,
      "six": 8435,
      "wertungen": 8436,
      "size": 8437,
      "liz": 8438,
      "spar": 8439,
      "Verbesserung": 8440,
      "Finally": 8441,
      "steller": 8442,
      "Notwend": 8443,
      "Binnenmarkt": 8444,
      "Amend": 8445,
      "schließend": 8446,
      "creen": 8447,
      "ipl": 8448,
      "film": 8449,
      "immen": 8450,
      "Bad": 8451,
      "erweise": 8452,
      "Material": 8453,
      "Tre": 8454,
      "Nat": 8455,
      "dat": 8456,
      "wobei": 8457,
      "Mac": 8458,
      "kraft": 8459,
      "sterreich": 8460,
      "highly": 8461,
      "beginning": 8462,
      "congratul": 8463,
      "Ok": 8464,
      "genannten": 8465,
      "added": 8466,
      "places": 8467,
      "irgend": 8468,
      "Linux": 8469,
      "Roman": 8470,
      "Gew": 8471,
      "ope": 8472,
      "Liefer": 8473,
      "inne": 8474,
      "news": 8475,
      "Darüber": 8476,
      "haupt": 8477,
      "erster": 8478,
      "letter": 8479,
      "verfüg": 8480,
      "Russland": 8481,
      "Krieg": 8482,
      "ork": 8483,
      "hoben": 8484,
      "Ergebnisse": 8485,
      "server": 8486,
      "keyword": 8487,
      "stens": 8488,
      "asked": 8489,
      "häre": 8490,
      "Süd": 8491,
      "Affairs": 8492,
      "oil": 8493,
      "huge": 8494,
      "Woche": 8495,
      "feld": 8496,
      "presented": 8497,
      "everyone": 8498,
      "Sil": 8499,
      "pie": 8500,
      "Fehler": 8501,
      "ife": 8502,
      "Oc": 8503,
      "levels": 8504,
      "heut": 8505,
      "einzig": 8506,
      "koll": 8507,
      "Gelegenheit": 8508,
      "foot": 8509,
      "fonds": 8510,
      "verwenden": 8511,
      "ured": 8512,
      "sterdam": 8513,
      "video": 8514,
      "Herzen": 8515,
      "völlig": 8516,
      "scient": 8517,
      "direction": 8518,
      "SS": 8519,
      "avoid": 8520,
      "Exper": 8521,
      "dialogue": 8522,
      "Amsterdam": 8523,
      "eigene": 8524,
      "reviews": 8525,
      "fix": 8526,
      "Anzahl": 8527,
      "arm": 8528,
      "guten": 8529,
      "iveness": 8530,
      "aving": 8531,
      "Verwendung": 8532,
      "shows": 8533,
      "dynam": 8534,
      "increased": 8535,
      "klus": 8536,
      "verbessern": 8537,
      "Ferien": 8538,
      "agreed": 8539,
      "higher": 8540,
      "Transport": 8541,
      "theless": 8542,
      "tliche": 8543,
      "exe": 8544,
      "Aut": 8545,
      "stances": 8546,
      "kan": 8547,
      "relevant": 8548,
      "ffet": 8549,
      "ffen": 8550,
      "Initiative": 8551,
      "fördern": 8552,
      "großer": 8553,
      "Gewalt": 8554,
      "Post": 8555,
      "Social": 8556,
      "Cap": 8557,
      "wohn": 8558,
      "Voraus": 8559,
      "governments": 8560,
      "Berg": 8561,
      "Ph": 8562,
      "attem": 8563,
      "Arbeitspl": 8564,
      "denken": 8565,
      "nern": 8566,
      "Super": 8567,
      "consumers": 8568,
      "balance": 8569,
      "üsse": 8570,
      "verfügen": 8571,
      "Further": 8572,
      "carried": 8573,
      "Hinter": 8574,
      "gehören": 8575,
      "choose": 8576,
      "günst": 8577,
      "imming": 8578,
      "Gip": 8579,
      "vorschriften": 8580,
      "stag": 8581,
      "Solid": 8582,
      "Second": 8583,
      "commercial": 8584,
      "dang": 8585,
      "Schaffung": 8586,
      "supply": 8587,
      "schnitt": 8588,
      "plat": 8589,
      "konkre": 8590,
      "union": 8591,
      "ques": 8592,
      "subsid": 8593,
      "phys": 8594,
      "Familie": 8595,
      "erve": 8596,
      "Well": 8597,
      "Tor": 8598,
      "ially": 8599,
      "arg": 8600,
      "closed": 8601,
      "wählen": 8602,
      "diskut": 8603,
      "Eigen": 8604,
      "zeugt": 8605,
      "smo": 8606,
      "stress": 8607,
      "ume": 8608,
      "Golf": 8609,
      "nä": 8610,
      "setting": 8611,
      "Debian": 8612,
      "similar": 8613,
      "amendment": 8614,
      "categor": 8615,
      "gesprochen": 8616,
      "veh": 8617,
      "source": 8618,
      "aschinen": 8619,
      "bestät": 8620,
      "offenen": 8621,
      "Cal": 8622,
      "sicherheit": 8623,
      "worth": 8624,
      "stark": 8625,
      "Therefore": 8626,
      "mem": 8627,
      "pret": 8628,
      "Zeitpunkt": 8629,
      "whose": 8630,
      "considered": 8631,
      "IL": 8632,
      "Hy": 8633,
      "meinem": 8634,
      "Tat": 8635,
      "Mai": 8636,
      "soziale": 8637,
      "enlarge": 8638,
      "appoint": 8639,
      "trip": 8640,
      "condu": 8641,
      "went": 8642,
      "FR": 8643,
      "shown": 8644,
      "Maß": 8645,
      "Bud": 8646,
      "principles": 8647,
      "verstär": 8648,
      "nuclear": 8649,
      "UR": 8650,
      "vorhand": 8651,
      "High": 8652,
      "Jugend": 8653,
      "Neu": 8654,
      "sustainable": 8655,
      "berü": 8656,
      "zunächst": 8657,
      "perhaps": 8658,
      "thanks": 8659,
      "gesamte": 8660,
      "Erfahrung": 8661,
      "Änderungen": 8662,
      "Män": 8663,
      "ähn": 8664,
      "commitment": 8665,
      "istische": 8666,
      "IV": 8667,
      "mäßig": 8668,
      "wall": 8669,
      "Auss": 8670,
      "spezif": 8671,
      "Juni": 8672,
      "tool": 8673,
      "iglich": 8674,
      "pflich": 8675,
      "Open": 8676,
      "grenz": 8677,
      "innovative": 8678,
      "Develop": 8679,
      "materials": 8680,
      "scht": 8681,
      "latest": 8682,
      "Umgebung": 8683,
      "green": 8684,
      "iation": 8685,
      "effects": 8686,
      "rought": 8687,
      "kü": 8688,
      "sorgen": 8689,
      "fält": 8690,
      "dring": 8691,
      "possibility": 8692,
      "ays": 8693,
      "Zw": 8694,
      "summer": 8695,
      "Nieder": 8696,
      "Museum": 8697,
      "volution": 8698,
      "Rot": 8699,
      "Dom": 8700,
      "Produktion": 8701,
      "Sum": 8702,
      "stein": 8703,
      "frieden": 8704,
      "Element": 8705,
      "prepared": 8706,
      "abor": 8707,
      "matters": 8708,
      "atast": 8709,
      "öffnet": 8710,
      "details": 8711,
      "uchen": 8712,
      "exchange": 8713,
      "Während": 8714,
      "train": 8715,
      "Notwendigkeit": 8716,
      "tatsächlich": 8717,
      "maßnahmen": 8718,
      "wissenschaft": 8719,
      "circ": 8720,
      "kit": 8721,
      "riften": 8722,
      "status": 8723,
      "ption": 8724,
      "Gemeinschafts": 8725,
      "ique": 8726,
      "lam": 8727,
      "artige": 8728,
      "Kontakt": 8729,
      "Loc": 8730,
      "behind": 8731,
      "lower": 8732,
      "Koso": 8733,
      "ehm": 8734,
      "registr": 8735,
      "gült": 8736,
      "sufficient": 8737,
      "HT": 8738,
      "accommodation": 8739,
      "spruch": 8740,
      "sofort": 8741,
      "itation": 8742,
      "schriftlich": 8743,
      "easily": 8744,
      "Wahr": 8745,
      "atmosphere": 8746,
      "mä": 8747,
      "Install": 8748,
      "Spain": 8749,
      "Regierungen": 8750,
      "König": 8751,
      "obtain": 8752,
      "aufzu": 8753,
      "effizient": 8754,
      "ero": 8755,
      "publik": 8756,
      "aint": 8757,
      "aspects": 8758,
      "pressure": 8759,
      "capacity": 8760,
      "charge": 8761,
      "bauen": 8762,
      "hne": 8763,
      "Dabei": 8764,
      "Computer": 8765,
      "Article": 8766,
      "element": 8767,
      "eindeut": 8768,
      "Überein": 8769,
      "Position": 8770,
      "verstehen": 8771,
      "freien": 8772,
      "target": 8773,
      "Anwend": 8774,
      "usion": 8775,
      "wood": 8776,
      "ored": 8777,
      "empf": 8778,
      "hous": 8779,
      "iterrane": 8780,
      "opportunities": 8781,
      "mbol": 8782,
      "exhib": 8783,
      "akter": 8784,
      "ufen": 8785,
      "sourcen": 8786,
      "EM": 8787,
      "Eing": 8788,
      "rang": 8789,
      "reached": 8790,
      "thin": 8791,
      "lies": 8792,
      "vertreten": 8793,
      "Kommunik": 8794,
      "äußerst": 8795,
      "tu": 8796,
      "ausschuss": 8797,
      "32": 8798,
      "ya": 8799,
      "rema": 8800,
      "Neben": 8801,
      "tung": 8802,
      "promote": 8803,
      "York": 8804,
      "external": 8805,
      "ams": 8806,
      "review": 8807,
      "Einführung": 8808,
      "hohen": 8809,
      "response": 8810,
      "grant": 8811,
      "Film": 8812,
      "Stellung": 8813,
      "Vertrags": 8814,
      "Italy": 8815,
      "Gesundheits": 8816,
      "iplom": 8817,
      "death": 8818,
      "liance": 8819,
      "Africa": 8820,
      "trägt": 8821,
      "providing": 8822,
      "ierenden": 8823,
      "Sup": 8824,
      "Ratspräsident": 8825,
      "transpar": 8826,
      "hindern": 8827,
      "ette": 8828,
      "determin": 8829,
      "Market": 8830,
      "cou": 8831,
      "Sprache": 8832,
      "reduce": 8833,
      "talk": 8834,
      "decided": 8835,
      "ruh": 8836,
      "ses": 8837,
      "fluss": 8838,
      "erfolgreich": 8839,
      "äude": 8840,
      "lediglich": 8841,
      "Höhe": 8842,
      "produced": 8843,
      "cup": 8844,
      "submitted": 8845,
      "Del": 8846,
      "stands": 8847,
      "fle": 8848,
      "ios": 8849,
      "aust": 8850,
      "WTO": 8851,
      "Flughafen": 8852,
      "secure": 8853,
      "fehlen": 8854,
      "Down": 8855,
      "Wein": 8856,
      "Beschäftigung": 8857,
      "Integration": 8858,
      "crib": 8859,
      "DVD": 8860,
      "Also": 8861,
      "British": 8862,
      "somit": 8863,
      "ras": 8864,
      "Vereinbar": 8865,
      "Bul": 8866,
      "wünschen": 8867,
      "Aktivitäten": 8868,
      "treffen": 8869,
      "ather": 8870,
      "adap": 8871,
      "compre": 8872,
      "concept": 8873,
      "bestimmte": 8874,
      "gives": 8875,
      "Wettbewerb": 8876,
      "beschäft": 8877,
      "Republic": 8878,
      "bein": 8879,
      "ney": 8880,
      "arily": 8881,
      "1998": 8882,
      "block": 8883,
      "path": 8884,
      "SP": 8885,
      "impress": 8886,
      "announ": 8887,
      "neigh": 8888,
      "Dez": 8889,
      "bringt": 8890,
      "yer": 8891,
      "criter": 8892,
      "hören": 8893,
      "conven": 8894,
      "standing": 8895,
      "Solidar": 8896,
      "!!": 8897,
      "ausgestattet": 8898,
      "dient": 8899,
      "ees": 8900,
      "March": 8901,
      "istics": 8902,
      "remains": 8903,
      "vollen": 8904,
      "sprechend": 8905,
      "ierter": 8906,
      "uit": 8907,
      "Ukraine": 8908,
      "Systems": 8909,
      "flow": 8910,
      "Western": 8911,
      "island": 8912,
      "ession": 8913,
      "Booking": 8914,
      "Spa": 8915,
      "gewährleisten": 8916,
      "verpflich": 8917,
      "versuchen": 8918,
      "jekt": 8919,
      "Drit": 8920,
      "December": 8921,
      "highl": 8922,
      "iately": 8923,
      "restaurants": 8924,
      "Komprom": 8925,
      "Sicht": 8926,
      "Free": 8927,
      "billion": 8928,
      "leave": 8929,
      "Sommer": 8930,
      "architect": 8931,
      "Jahrhundert": 8932,
      "priority": 8933,
      "supported": 8934,
      "Kop": 8935,
      "ike": 8936,
      "ibilities": 8937,
      "Convention": 8938,
      "suffer": 8939,
      "Kommissarin": 8940,
      "reading": 8941,
      "TH": 8942,
      "property": 8943,
      "iture": 8944,
      "emission": 8945,
      "este": 8946,
      "xis": 8947,
      "quiet": 8948,
      "Such": 8949,
      "ering": 8950,
      "liberal": 8951,
      "Oper": 8952,
      "Cre": 8953,
      "bey": 8954,
      "'.": 8955,
      "parte": 8956,
      "enlargement": 8957,
      "Bra": 8958,
      "äst": 8959,
      "Nur": 8960,
      "Italien": 8961,
      "zweite": 8962,
      "Dinge": 8963,
      "obwohl": 8964,
      "räum": 8965,
      "Gruppen": 8966,
      "36": 8967,
      "bestimmten": 8968,
      "aufgenommen": 8969,
      "erhält": 8970,
      "else": 8971,
      "consumer": 8972,
      "Prä": 8973,
      "funding": 8974,
      "zahlreiche": 8975,
      "shof": 8976,
      "quare": 8977,
      "maß": 8978,
      "Kosovo": 8979,
      "lock": 8980,
      "roat": 8981,
      "imension": 8982,
      "setzungen": 8983,
      "independent": 8984,
      "north": 8985,
      "Privat": 8986,
      "erheb": 8987,
      "Site": 8988,
      "vorliegen": 8989,
      "Erachten": 8990,
      "Stad": 8991,
      "Party": 8992,
      "ado": 8993,
      "meines": 8994,
      "Erachtens": 8995,
      "presents": 8996,
      "school": 8997,
      "Inde": 8998,
      "zeuge": 8999,
      "apartment": 9000,
      "konzentr": 9001,
      "influ": 9002,
      "las": 9003,
      "schütz": 9004,
      "produce": 9005,
      "ielt": 9006,
      "Basis": 9007,
      "Auff": 9008,
      "Tät": 9009,
      "wesentlich": 9010,
      "Last": 9011,
      "Preise": 9012,
      "Jed": 9013,
      "Grand": 9014,
      "inger": 9015,
      "Gast": 9016,
      "Sen": 9017,
      "sätz": 9018,
      "comprehens": 9019,
      "Standpunkt": 9020,
      "iency": 9021,
      "acceptable": 9022,
      "Staat": 9023,
      "Medien": 9024,
      "King": 9025,
      "purpose": 9026,
      "Services": 9027,
      "Technologie": 9028,
      "largest": 9029,
      "tains": 9030,
      "tom": 9031,
      "ollar": 9032,
      "itzer": 9033,
      "Bekämpfung": 9034,
      "thous": 9035,
      "Bon": 9036,
      "ark": 9037,
      "französ": 9038,
      "deck": 9039,
      "braucht": 9040,
      "Hel": 9041,
      "sprün": 9042,
      "rule": 9043,
      "craft": 9044,
      "infra": 9045,
      "perform": 9046,
      "wurf": 9047,
      "tät": 9048,
      "utt": 9049,
      "Dezember": 9050,
      "ology": 9051,
      "icy": 9052,
      "sagte": 9053,
      "Video": 9054,
      "reibung": 9055,
      "assistance": 9056,
      "....": 9057,
      "pleased": 9058,
      "gerecht": 9059,
      "Fortschritte": 9060,
      "steps": 9061,
      "ghan": 9062,
      "allein": 9063,
      "möglichkeiten": 9064,
      "krimin": 9065,
      "Tal": 9066,
      "Villa": 9067,
      "atastrop": 9068,
      "creating": 9069,
      "renov": 9070,
      "base": 9071,
      "categories": 9072,
      "engen": 9073,
      "Instit": 9074,
      "brought": 9075,
      "rig": 9076,
      "ault": 9077,
      "vorgesehen": 9078,
      "deli": 9079,
      "movement": 9080,
      "industrie": 9081,
      "Punkte": 9082,
      "ously": 9083,
      "January": 9084,
      "variety": 9085,
      "Det": 9086,
      "Italian": 9087,
      "concl": 9088,
      "written": 9089,
      "ünd": 9090,
      "außerdem": 9091,
      "Tem": 9092,
      "Wä": 9093,
      "Test": 9094,
      "frequ": 9095,
      "Schweiz": 9096,
      "Stelle": 9097,
      "Erklärung": 9098,
      "etimes": 9099,
      "és": 9100,
      "wertung": 9101,
      "idel": 9102,
      "nommen": 9103,
      "Bundes": 9104,
      "stelle": 9105,
      "October": 9106,
      "conference": 9107,
      "abzu": 9108,
      "berühm": 9109,
      "regulations": 9110,
      "activity": 9111,
      "vorher": 9112,
      "ilen": 9113,
      "solchen": 9114,
      "reign": 9115,
      "insgesamt": 9116,
      "Bestimmungen": 9117,
      "child": 9118,
      "expla": 9119,
      "gebaut": 9120,
      "Every": 9121,
      "einheit": 9122,
      "morgen": 9123,
      "iterranean": 9124,
      "except": 9125,
      "legt": 9126,
      "ategorien": 9127,
      "Prü": 9128,
      "zweiten": 9129,
      "größten": 9130,
      "spekt": 9131,
      "einschließlich": 9132,
      "sitzen": 9133,
      "message": 9134,
      "sort": 9135,
      "paid": 9136,
      "consist": 9137,
      "medium": 9138,
      "utter": 9139,
      "section": 9140,
      "grundlegen": 9141,
      "wander": 9142,
      "mous": 9143,
      "bewertungen": 9144,
      "keits": 9145,
      "Lu": 9146,
      "rum": 9147,
      "eval": 9148,
      "einzige": 9149,
      "dadurch": 9150,
      "kil": 9151,
      "Mart": 9152,
      "became": 9153,
      "Mehrheit": 9154,
      "distance": 9155,
      "Sign": 9156,
      "handel": 9157,
      "CE": 9158,
      "Bilder": 9159,
      "sus": 9160,
      "oben": 9161,
      "discussion": 9162,
      "fresh": 9163,
      "allowed": 9164,
      "measure": 9165,
      "48": 9166,
      "instead": 9167,
      "losen": 9168,
      "uner": 9169,
      "Küche": 9170,
      "interesting": 9171,
      "iffe": 9172,
      "März": 9173,
      "jün": 9174,
      "Feder": 9175,
      "Gefahr": 9176,
      "solidar": 9177,
      "contra": 9178,
      "Aufmerksam": 9179,
      "instruments": 9180,
      "Phil": 9181,
      "construct": 9182,
      "Today": 9183,
      "vergangenen": 9184,
      "Abend": 9185,
      "Vorschriften": 9186,
      "bor": 9187,
      "kürz": 9188,
      "Protokoll": 9189,
      "anders": 9190,
      "klein": 9191,
      "started": 9192,
      "study": 9193,
      "Anforderungen": 9194,
      "Oktober": 9195,
      "Mult": 9196,
      "ries": 9197,
      "forget": 9198,
      "ades": 9199,
      "repe": 9200,
      "vorhanden": 9201,
      "genießen": 9202,
      "falt": 9203,
      "\"...": 9204,
      "Slo": 9205,
      "obvious": 9206,
      "fishing": 9207,
      "resse": 9208,
      "ugs": 9209,
      "Your": 9210,
      "verbind": 9211,
      "oph": 9212,
      "Center": 9213,
      "ständigen": 9214,
      "opping": 9215,
      "ories": 9216,
      "Analy": 9217,
      "Bro": 9218,
      "ias": 9219,
      "Cons": 9220,
      "umb": 9221,
      "erfahren": 9222,
      "stability": 9223,
      "UK": 9224,
      "relationship": 9225,
      "fisher": 9226,
      "ails": 9227,
      "giving": 9228,
      "Gästebewertungen": 9229,
      "Entscheidungen": 9230,
      "verkauf": 9231,
      "uted": 9232,
      "shops": 9233,
      "Mediterranean": 9234,
      "Ren": 9235,
      "dut": 9236,
      "ürf": 9237,
      "iker": 9238,
      "effort": 9239,
      "AB": 9240,
      "hot": 9241,
      "illegal": 9242,
      "preis": 9243,
      "Aufmerksamkeit": 9244,
      "Transpar": 9245,
      "bezogen": 9246,
      "types": 9247,
      "compon": 9248,
      "Flü": 9249,
      "Universit": 9250,
      "ew": 9251,
      "Juli": 9252,
      "won": 9253,
      "Volk": 9254,
      "Hung": 9255,
      "advantage": 9256,
      "PD": 9257,
      "exact": 9258,
      "coast": 9259,
      "regards": 9260,
      "Ka": 9261,
      "Pap": 9262,
      "Metho": 9263,
      "Landwirtschaft": 9264,
      "ehe": 9265,
      "gewiesen": 9266,
      "Öffentlich": 9267,
      "Ansatz": 9268,
      "leistungs": 9269,
      "eigentlich": 9270,
      "depart": 9271,
      "Agent": 9272,
      "hair": 9273,
      "Rooms": 9274,
      "statement": 9275,
      "village": 9276,
      "bü": 9277,
      "drive": 9278,
      "75": 9279,
      "task": 9280,
      "Gel": 9281,
      "Projekte": 9282,
      "Freiheit": 9283,
      "Städ": 9284,
      "anlage": 9285,
      "legislative": 9286,
      "payment": 9287,
      "Präsidenten": 9288,
      "compromise": 9289,
      "occur": 9290,
      "üb": 9291,
      "keiner": 9292,
      "itude": 9293,
      "deten": 9294,
      "served": 9295,
      "Anfrage": 9296,
      "Prinzip": 9297,
      "Spanish": 9298,
      "accord": 9299,
      "Datei": 9300,
      "Winter": 9301,
      "electron": 9302,
      "During": 9303,
      "pts": 9304,
      "leider": 9305,
      "gment": 9306,
      "Aktion": 9307,
      "abkommen": 9308,
      "agenda": 9309,
      "Ged": 9310,
      "lösen": 9311,
      "wee": 9312,
      "brechen": 9313,
      "Berichts": 9314,
      "hältnis": 9315,
      "arency": 9316,
      "auern": 9317,
      "erwarten": 9318,
      "IF": 9319,
      "prises": 9320,
      "Start": 9321,
      "Ist": 9322,
      "serve": 9323,
      "Unternehmens": 9324,
      "ansch": 9325,
      "historical": 9326,
      "Bereiche": 9327,
      "sports": 9328,
      "sonst": 9329,
      "Gal": 9330,
      "Grenzen": 9331,
      "glück": 9332,
      "defen": 9333,
      "July": 9334,
      "ara": 9335,
      "“,": 9336,
      "procedures": 9337,
      "eingesetzt": 9338,
      "Straßen": 9339,
      "gewöhn": 9340,
      "Java": 9341,
      "contribution": 9342,
      "...\"": 9343,
      "stärker": 9344,
      "konnten": 9345,
      "damage": 9346,
      "Urlaub": 9347,
      "wenige": 9348,
      "pover": 9349,
      "cret": 9350,
      ".)": 9351,
      "prefer": 9352,
      "wine": 9353,
      "Bildung": 9354,
      "ost": 9355,
      "wichtiger": 9356,
      "Erzeug": 9357,
      "decl": 9358,
      "Belg": 9359,
      "Val": 9360,
      "fficiency": 9361,
      "lives": 9362,
      "hom": 9363,
      "Alt": 9364,
      "launch": 9365,
      "Rights": 9366,
      "Cr": 9367,
      "dlich": 9368,
      "Wider": 9369,
      "ming": 9370,
      "nöt": 9371,
      "häufig": 9372,
      "dienen": 9373,
      "Sant": 9374,
      "Ca": 9375,
      "Many": 9376,
      "Transparenz": 9377,
      "etary": 9378,
      "fine": 9379,
      "Diskussion": 9380,
      "Development": 9381,
      "ateral": 9382,
      "dise": 9383,
      "sprach": 9384,
      "ibe": 9385,
      "operating": 9386,
      "01": 9387,
      "legung": 9388,
      "ples": 9389,
      "kennt": 9390,
      "tools": 9391,
      "decken": 9392,
      "länger": 9393,
      "1997": 9394,
      "documents": 9395,
      "Verkehrs": 9396,
      "violence": 9397,
      "wirken": 9398,
      "minor": 9399,
      "ourselves": 9400,
      "temporary": 9401,
      "Stär": 9402,
      "AK": 9403,
      "poses": 9404,
      "happy": 9405,
      "erinn": 9406,
      "Meine": 9407,
      "conflict": 9408,
      "helpful": 9409,
      "Mann": 9410,
      "Portugal": 9411,
      "niedr": 9412,
      "nes": 9413,
      "geln": 9414,
      "größte": 9415,
      "Tagesordnung": 9416,
      "provisions": 9417,
      "ifik": 9418,
      "Auftrag": 9419,
      "folgenden": 9420,
      "benötigen": 9421,
      "distribution": 9422,
      "aktuellen": 9423,
      "Firma": 9424,
      "zieht": 9425,
      "integrated": 9426,
      "ritts": 9427,
      "growing": 9428,
      "rowser": 9429,
      "listen": 9430,
      "zi": 9431,
      "kannst": 9432,
      "IA": 9433,
      "durchgeführt": 9434,
      "IB": 9435,
      "Januar": 9436,
      "dates": 9437,
      "criteria": 9438,
      "mensch": 9439,
      "Flor": 9440,
      "div": 9441,
      "highest": 9442,
      "Regeln": 9443,
      "univers": 9444,
      "benefits": 9445,
      "würdig": 9446,
      "wards": 9447,
      "beziehen": 9448,
      "Tradition": 9449,
      "produz": 9450,
      "labour": 9451,
      "Schn": 9452,
      "Arbeitnehmer": 9453,
      "ato": 9454,
      "Agrar": 9455,
      "Centre": 9456,
      "parking": 9457,
      "vital": 9458,
      "geber": 9459,
      "sinn": 9460,
      "Spezial": 9461,
      "Aufenthalt": 9462,
      "Bot": 9463,
      "griffen": 9464,
      "offiz": 9465,
      "University": 9466,
      "constant": 9467,
      "immediately": 9468,
      "Mid": 9469,
      "Lebensmittel": 9470,
      "Investitionen": 9471,
      "Linie": 9472,
      "unmittel": 9473,
      "nel": 9474,
      "forderung": 9475,
      "Empfehl": 9476,
      "Os": 9477,
      "copy": 9478,
      "Although": 9479,
      "spirit": 9480,
      "apartments": 9481,
      "late": 9482,
      "Bulgar": 9483,
      "Saf": 9484,
      "cement": 9485,
      "Stu": 9486,
      "Iraq": 9487,
      "ologie": 9488,
      "Nr": 9489,
      "PH": 9490,
      "mountain": 9491,
      "38": 9492,
      "höher": 9493,
      "elements": 9494,
      "dank": 9495,
      "klass": 9496,
      "goes": 9497,
      "Untersuch": 9498,
      "limit": 9499,
      "imat": 9500,
      "Afghan": 9501,
      "leiten": 9502,
      "stabil": 9503,
      "Atmosp": 9504,
      "getan": 9505,
      "constit": 9506,
      "alternative": 9507,
      "ierende": 9508,
      "plus": 9509,
      "She": 9510,
      "Rechnung": 9511,
      "Hä": 9512,
      "friends": 9513,
      "IR": 9514,
      "Nationen": 9515,
      "fire": 9516,
      "erc": 9517,
      "wortern": 9518,
      "dent": 9519,
      "useful": 9520,
      "400": 9521,
      "Schwier": 9522,
      "Veränder": 9523,
      "lichkeiten": 9524,
      "reject": 9525,
      "geworden": 9526,
      "legit": 9527,
      "Rede": 9528,
      "dienst": 9529,
      "ality": 9530,
      "reli": 9531,
      "heben": 9532,
      "forces": 9533,
      "wart": 9534,
      "zut": 9535,
      "ihres": 9536,
      "daily": 9537,
      "employees": 9538,
      "map": 9539,
      "Heute": 9540,
      "wesen": 9541,
      "Hins": 9542,
      "ursprün": 9543,
      "bathroom": 9544,
      "europäischer": 9545,
      "Hinsicht": 9546,
      "wasser": 9547,
      "Sinne": 9548,
      "transparency": 9549,
      "Furthermore": 9550,
      "annual": 9551,
      "Gründen": 9552,
      "fas": 9553,
      "numerous": 9554,
      "cert": 9555,
      "lesen": 9556,
      "teach": 9557,
      "Sache": 9558,
      "veröffentlich": 9559,
      "Betrieb": 9560,
      "betreffen": 9561,
      "drücklich": 9562,
      "kontroll": 9563,
      "bilden": 9564,
      "betre": 9565,
      "Kennt": 9566,
      "cription": 9567,
      "mic": 9568,
      "idge": 9569,
      "Enterprise": 9570,
      "schönen": 9571,
      "paar": 9572,
      "track": 9573,
      "Koh": 9574,
      "historic": 9575,
      "zeichnung": 9576,
      "eher": 9577,
      "MP": 9578,
      "enh": 9579,
      "occas": 9580,
      "applied": 9581,
      "stock": 9582,
      "elections": 9583,
      "Gest": 9584,
      "screen": 9585,
      "finally": 9586,
      "offering": 9587,
      "begrüße": 9588,
      "equal": 9589,
      "Präsidentschaft": 9590,
      "ford": 9591,
      "mas": 9592,
      "analysis": 9593,
      "motor": 9594,
      "reality": 9595,
      "hear": 9596,
      "buffet": 9597,
      "Forschungs": 9598,
      "challenges": 9599,
      "ape": 9600,
      "lernen": 9601,
      "Beginn": 9602,
      "geschaffen": 9603,
      "orial": 9604,
      "ogle": 9605,
      "Schlusselwortern": 9606,
      "dro": 9607,
      "thought": 9608,
      "34": 9609,
      "Ve": 9610,
      "**": 9611,
      "Auffassung": 9612,
      "processes": 9613,
      "unten": 9614,
      "Bemüh": 9615,
      "erneut": 9616,
      "Ereign": 9617,
      "werte": 9618,
      "rosoft": 9619,
      "weak": 9620,
      "komp": 9621,
      "herz": 9622,
      "fühl": 9623,
      "schätz": 9624,
      "150": 9625,
      "ille": 9626,
      "entsprechend": 9627,
      "früher": 9628,
      "poverty": 9629,
      "Sat": 9630,
      "sätze": 9631,
      "Öffentlichkeit": 9632,
      "Restaurants": 9633,
      "Econom": 9634,
      "oo": 9635,
      "äte": 9636,
      "saying": 9637,
      "zusch": 9638,
      "vergessen": 9639,
      "übrigen": 9640,
      "brand": 9641,
      "wechsel": 9642,
      "bewusst": 9643,
      "freie": 9644,
      "Camp": 9645,
      "perman": 9646,
      "Aufgaben": 9647,
      "practical": 9648,
      "Cast": 9649,
      "opol": 9650,
      "afr": 9651,
      "angesichts": 9652,
      "geleg": 9653,
      "Ost": 9654,
      "institutional": 9655,
      "Green": 9656,
      "äre": 9657,
      "sales": 9658,
      "offered": 9659,
      "EG": 9660,
      "persons": 9661,
      "scheinlich": 9662,
      "aign": 9663,
      "modified": 9664,
      "operations": 9665,
      "fant": 9666,
      "tritt": 9667,
      "öffentliche": 9668,
      "solidarity": 9669,
      "Vir": 9670,
      "flü": 9671,
      "curren": 9672,
      "Sitzung": 9673,
      "bür": 9674,
      "Dateien": 9675,
      "laufen": 9676,
      "entsprechenden": 9677,
      "elegation": 9678,
      "kannt": 9679,
      "colleagues": 9680,
      "steigen": 9681,
      "consequences": 9682,
      "Even": 9683,
      "Armut": 9684,
      "merk": 9685,
      "Bürgern": 9686,
      "bill": 9687,
      "gnis": 9688,
      "Shop": 9689,
      "shopping": 9690,
      "berecht": 9691,
      "Tab": 9692,
      "izin": 9693,
      "behandelt": 9694,
      "Fon": 9695,
      "victim": 9696,
      "anden": 9697,
      "beyond": 9698,
      "Bay": 9699,
      "IG": 9700,
      "Nachbar": 9701,
      "diejenigen": 9702,
      "wanted": 9703,
      "Grö": 9704,
      "requires": 9705,
      "icated": 9706,
      "Beteil": 9707,
      "Palest": 9708,
      "verw": 9709,
      "options": 9710,
      "restr": 9711,
      "Human": 9712,
      "bir": 9713,
      "Sm": 9714,
      "Folge": 9715,
      "zuführen": 9716,
      "Austria": 9717,
      "Microsoft": 9718,
      "published": 9719,
      "nungen": 9720,
      "ideas": 9721,
      "langfrist": 9722,
      "adequ": 9723,
      "beitragen": 9724,
      "carry": 9725,
      "Wohl": 9726,
      "Bemühungen": 9727,
      "usch": 9728,
      "street": 9729,
      "Fällen": 9730,
      "minimum": 9731,
      "ausgezeich": 9732,
      "behalten": 9733,
      "Vertreter": 9734,
      "verstanden": 9735,
      "Spieler": 9736,
      "Archite": 9737,
      "sil": 9738,
      "Ressourcen": 9739,
      "News": 9740,
      "Security": 9741,
      "Bedürf": 9742,
      "bedingt": 9743,
      "machine": 9744,
      "ücke": 9745,
      "iveau": 9746,
      "kap": 9747,
      "zeiten": 9748,
      "unterst": 9749,
      "verz": 9750,
      "syn": 9751,
      "NG": 9752,
      "morrow": 9753,
      "Gericht": 9754,
      "Monaten": 9755,
      "zufrieden": 9756,
      "):": 9757,
      "clients": 9758,
      "humanit": 9759,
      "implemented": 9760,
      "37": 9761,
      "AF": 9762,
      "stet": 9763,
      "Natürlich": 9764,
      "spee": 9765,
      "penden": 9766,
      "Werte": 9767,
      "Wunsch": 9768,
      "itzen": 9769,
      "Gebäude": 9770,
      "gruppe": 9771,
      "weeks": 9772,
      "erfolgt": 9773,
      "Tex": 9774,
      "Behandlung": 9775,
      "tomorrow": 9776,
      "SD": 9777,
      "starting": 9778,
      "NAT": 9779,
      "preci": 9780,
      "ye": 9781,
      "congratulate": 9782,
      "Tagen": 9783,
      "email": 9784,
      "ione": 9785,
      "verhindern": 9786,
      "Telefon": 9787,
      "waste": 9788,
      "Public": 9789,
      "Pet": 9790,
      "beant": 9791,
      "Atmosphäre": 9792,
      "format": 9793,
      "fill": 9794,
      "umfang": 9795,
      "minute": 9796,
      "doubt": 9797,
      "scientific": 9798,
      "Schließ": 9799,
      "beschrän": 9800,
      "hätten": 9801,
      "cts": 9802,
      "Änderung": 9803,
      "195": 9804,
      "Airport": 9805,
      "aver": 9806,
      "Doppel": 9807,
      "Moder": 9808,
      "erkennen": 9809,
      "lost": 9810,
      "Nacht": 9811,
      "efficiency": 9812,
      "richtige": 9813,
      "meaning": 9814,
      "netz": 9815,
      "Milliar": 9816,
      "Modell": 9817,
      "Stabilität": 9818,
      "Inhalt": 9819,
      "attempt": 9820,
      "terrorism": 9821,
      "hesion": 9822,
      "AV": 9823,
      "morning": 9824,
      "Out": 9825,
      "Aller": 9826,
      "Mess": 9827,
      "games": 9828,
      "domin": 9829,
      "berücksichtigt": 9830,
      "crucial": 9831,
      "Ins": 9832,
      "demokratischen": 9833,
      "reference": 9834,
      "maximum": 9835,
      "gewesen": 9836,
      "organisations": 9837,
      "steuer": 9838,
      "decor": 9839,
      "partnership": 9840,
      "Mass": 9841,
      "touch": 9842,
      "Download": 9843,
      "Ven": 9844,
      "dauer": 9845,
      "tage": 9846,
      "ienz": 9847,
      "estic": 9848,
      "spa": 9849,
      "kret": 9850,
      "sometimes": 9851,
      "formul": 9852,
      "anderem": 9853,
      "Cy": 9854,
      "tit": 9855,
      "technologies": 9856,
      "advert": 9857,
      "Bürgerinnen": 9858,
      "endlich": 9859,
      "changed": 9860,
      "Dritt": 9861,
      "ischem": 9862,
      "pekt": 9863,
      "comprehensive": 9864,
      "gehalten": 9865,
      "Mand": 9866,
      "1996": 9867,
      "chair": 9868,
      "fried": 9869,
      "angeboten": 9870,
      "fish": 9871,
      "monitoring": 9872,
      "Altern": 9873,
      "mi": 9874,
      "Vergangen": 9875,
      "jem": 9876,
      "versucht": 9877,
      "Tar": 9878,
      "weist": 9879,
      "deutschen": 9880,
      "vari": 9881,
      "reduction": 9882,
      "Lang": 9883,
      "images": 9884,
      "While": 9885,
      "pictures": 9886,
      "Republik": 9887,
      "33": 9888,
      "verläss": 9889,
      "modernen": 9890,
      "OT": 9891,
      "kitchen": 9892,
      "technischen": 9893,
      "Erfahrungen": 9894,
      "zeichnen": 9895,
      "fli": 9896,
      "ista": 9897,
      "discrimin": 9898,
      "Amendment": 9899,
      "anything": 9900,
      "Dien": 9901,
      "degre": 9902,
      "wan": 9903,
      "alität": 9904,
      "players": 9905,
      "Kredit": 9906,
      "Are": 9907,
      "swimming": 9908,
      "alone": 9909,
      "Lassen": 9910,
      "voting": 9911,
      "bemü": 9912,
      "Arab": 9913,
      "tourist": 9914,
      "urance": 9915,
      "sechs": 9916,
      "probably": 9917,
      "geschrieben": 9918,
      "campaign": 9919,
      "begin": 9920,
      "Google": 9921,
      "warum": 9922,
      "vollständig": 9923,
      "fügen": 9924,
      "tex": 9925,
      "hervorragen": 9926,
      "bezieh": 9927,
      "überhaupt": 9928,
      "valid": 9929,
      "irl": 9930,
      "pursu": 9931,
      "heav": 9932,
      "würd": 9933,
      "förder": 9934,
      "restrict": 9935,
      "caused": 9936,
      "interested": 9937,
      "leistung": 9938,
      "circum": 9939,
      "emer": 9940,
      "erns": 9941,
      "rapid": 9942,
      "Koordin": 9943,
      "fit": 9944,
      "Minder": 9945,
      "gers": 9946,
      "Rats": 9947,
      "bote": 9948,
      "player": 9949,
      "Stock": 9950,
      "arrange": 9951,
      "languages": 9952,
      "Tier": 9953,
      "historischen": 9954,
      "verantwortlich": 9955,
      "erklärt": 9956,
      "Finanzierung": 9957,
      "Mos": 9958,
      "plans": 9959,
      "Spanien": 9960,
      "ham": 9961,
      "fläche": 9962,
      "critic": 9963,
      "neues": 9964,
      "Praxis": 9965,
      "ellschaften": 9966,
      "worldwide": 9967,
      "ML": 9968,
      "erfüllen": 9969,
      "Kan": 9970,
      "stehenden": 9971,
      "Fel": 9972,
      "release": 9973,
      "Sterne": 9974,
      "Frankfur": 9975,
      "karte": 9976,
      "began": 9977,
      "Firmen": 9978,
      "Viele": 9979,
      "chance": 9980,
      "welches": 9981,
      "zahlreichen": 9982,
      "scr": 9983,
      "abe": 9984,
      "ständige": 9985,
      "Adresse": 9986,
      "likely": 9987,
      "Garten": 9988,
      "Soll": 9989,
      "describ": 9990,
      "sü": 9991,
      "//": 9992,
      "Swiss": 9993,
      "temper": 9994,
      "erwartet": 9995,
      "Denn": 9996,
      "langen": 9997,
      "Directive": 9998,
      "stattung": 9999,
      "Rechtsvorschriften": 10000,
      "iling": 10001,
      "jüng": 10002,
      "Berat": 10003,
      "daten": 10004,
      "spann": 10005,
      "beru": 10006,
      "fee": 10007,
      "Verteid": 10008,
      "walking": 10009,
      "iö": 10010,
      "challenge": 10011,
      "relating": 10012,
      "Ther": 10013,
      "zahlt": 10014,
      "ED": 10015,
      "John": 10016,
      "Chinese": 10017,
      "ira": 10018,
      "Waren": 10019,
      "Vergangenheit": 10020,
      "Produktions": 10021,
      "gelt": 10022,
      "farmers": 10023,
      "Conference": 10024,
      "komfort": 10025,
      "Vertrauen": 10026,
      "holen": 10027,
      "menu": 10028,
      "trägen": 10029,
      "bul": 10030,
      "Sonder": 10031,
      "losigkeit": 10032,
      "scale": 10033,
      "führte": 10034,
      "accordance": 10035,
      "säm": 10036,
      "selection": 10037,
      "Mc": 10038,
      "Station": 10039,
      "Flex": 10040,
      "spannen": 10041,
      "comb": 10042,
      "izes": 10043,
      "usw": 10044,
      "Islam": 10045,
      "accession": 10046,
      "jeweiligen": 10047,
      "99": 10048,
      "verm": 10049,
      "Zweitens": 10050,
      "Gesamt": 10051,
      "methods": 10052,
      "splan": 10053,
      "Terrorismus": 10054,
      "ery": 10055,
      "hour": 10056,
      "extent": 10057,
      "gruppen": 10058,
      "Inn": 10059,
      "reisen": 10060,
      "stets": 10061,
      "appreci": 10062,
      "concentr": 10063,
      "”.": 10064,
      "befür": 10065,
      "Anstreng": 10066,
      "east": 10067,
      "igungen": 10068,
      "gekommen": 10069,
      "Schritte": 10070,
      "izing": 10071,
      "era": 10072,
      "pul": 10073,
      "Beruf": 10074,
      "enze": 10075,
      "Sam": 10076,
      "nungs": 10077,
      "Democr": 10078,
      "wahrscheinlich": 10079,
      "cities": 10080,
      "adjust": 10081,
      "versor": 10082,
      "Code": 10083,
      "Dann": 10084,
      "expert": 10085,
      "italien": 10086,
      "processing": 10087,
      "tete": 10088,
      "resort": 10089,
      "Opfer": 10090,
      "Aspekte": 10091,
      "spo": 10092,
      "fields": 10093,
      "visitors": 10094,
      "schützen": 10095,
      "Besonder": 10096,
      "verpflichtet": 10097,
      "dung": 10098,
      "zumindest": 10099,
      "seines": 10100,
      "breite": 10101,
      "Ire": 10102,
      "Menschenrechts": 10103,
      "außerhalb": 10104,
      "elegant": 10105,
      "candid": 10106,
      "cycl": 10107,
      "Prem": 10108,
      "Mün": 10109,
      "raf": 10110,
      "Ord": 10111,
      "occup": 10112,
      "businesses": 10113,
      "Parteien": 10114,
      "bran": 10115,
      "sha": 10116,
      "%.": 10117,
      "genug": 10118,
      "Angelegenheit": 10119,
      "season": 10120,
      "mögen": 10121,
      "stieg": 10122,
      "trust": 10123,
      "gehend": 10124,
      "Kauf": 10125,
      "Voll": 10126,
      "Nun": 10127,
      "Ireland": 10128,
      "powers": 10129,
      "barer": 10130,
      "sorg": 10131,
      "rise": 10132,
      "letzte": 10133,
      "villa": 10134,
      "influence": 10135,
      "ids": 10136,
      "gemeinschaft": 10137,
      "äten": 10138,
      "Zivil": 10139,
      "sectors": 10140,
      "strategic": 10141,
      "Leit": 10142,
      "trächt": 10143,
      "diver": 10144,
      "Berichterstatterin": 10145,
      "separate": 10146,
      "Prozent": 10147,
      "erlaubt": 10148,
      "Distr": 10149,
      "calls": 10150,
      "Dazu": 10151,
[...]
